{
  "version": "1.0",
  "truncation": null,
  "padding": null,
  "added_tokens": [
    {
      "id": 0,
      "content": "<|endoftext|>",
      "single_word": false,
      "lstrip": false,
      "rstrip": false,
      "normalized": false,
      "special": true
    },
    {
      "id": 1,
      "content": "<|im_start|>",
      "single_word": false,
      "lstrip": false,
      "rstrip": false,
      "normalized": false,
      "special": true
    },
    {
      "id": 2,
      "content": "<|im_end|>",
      "single_word": false,
      "lstrip": false,
      "rstrip": false,
      "normalized": false,
      "special": true
    }
  ],
  "normalizer": null,
  "pre_tokenizer": {
    "type": "ByteLevel",
    "add_prefix_space": false,
    "trim_offsets": true,
    "use_regex": true
  },
  "post_processor": null,
  "decoder": {
    "type": "ByteLevel",
    "add_prefix_space": true,
    "trim_offsets": true,
    "use_regex": true
  },
  "model": {
    "type": "BPE",
    "dropout": null,
    "unk_token": null,
    "continuing_subword_prefix": null,
    "end_of_word_suffix": null,
    "fuse_unk": false,
    "byte_fallback": false,
    "ignore_merges": false,
    "vocab": {
      "<|endoftext|>": 0,
      "<|im_start|>": 1,
      "<|im_end|>": 2,
      "!": 3,
      "\"": 4,
      "#": 5,
      "$": 6,
      "%": 7,
      "&": 8,
      "'": 9,
      "(": 10,
      ")": 11,
      "*": 12,
      "+": 13,
      ",": 14,
      "-": 15,
      ".": 16,
      "/": 17,
      "0": 18,
      "1": 19,
      "2": 20,
      "3": 21,
      "4": 22,
      "5": 23,
      "6": 24,
      "7": 25,
      "8": 26,
      "9": 27,
      ":": 28,
      ";": 29,
      "<": 30,
      "=": 31,
      ">": 32,
      "?": 33,
      "@": 34,
      "A": 35,
      "B": 36,
      "C": 37,
      "D": 38,
      "E": 39,
      "F": 40,
      "G": 41,
      "H": 42,
      "I": 43,
      "J": 44,
      "K": 45,
      "L": 46,
      "M": 47,
      "N": 48,
      "O": 49,
      "P": 50,
      "Q": 51,
      "R": 52,
      "S": 53,
      "T": 54,
      "U": 55,
      "V": 56,
      "W": 57,
      "X": 58,
      "Y": 59,
      "Z": 60,
      "[": 61,
      "\\": 62,
      "]": 63,
      "^": 64,
      "_": 65,
      "`": 66,
      "a": 67,
      "b": 68,
      "c": 69,
      "d": 70,
      "e": 71,
      "f": 72,
      "g": 73,
      "h": 74,
      "i": 75,
      "j": 76,
      "k": 77,
      "l": 78,
      "m": 79,
      "n": 80,
      "o": 81,
      "p": 82,
      "q": 83,
      "r": 84,
      "s": 85,
      "t": 86,
      "u": 87,
      "v": 88,
      "w": 89,
      "x": 90,
      "y": 91,
      "z": 92,
      "{": 93,
      "|": 94,
      "}": 95,
      "~": 96,
      "¡": 97,
      "¢": 98,
      "£": 99,
      "¤": 100,
      "¥": 101,
      "¦": 102,
      "§": 103,
      "¨": 104,
      "©": 105,
      "ª": 106,
      "«": 107,
      "¬": 108,
      "®": 109,
      "¯": 110,
      "°": 111,
      "±": 112,
      "²": 113,
      "³": 114,
      "´": 115,
      "µ": 116,
      "¶": 117,
      "·": 118,
      "¸": 119,
      "¹": 120,
      "º": 121,
      "»": 122,
      "¼": 123,
      "½": 124,
      "¾": 125,
      "¿": 126,
      "À": 127,
      "Á": 128,
      "Â": 129,
      "Ã": 130,
      "Ä": 131,
      "Å": 132,
      "Æ": 133,
      "Ç": 134,
      "È": 135,
      "É": 136,
      "Ê": 137,
      "Ë": 138,
      "Ì": 139,
      "Í": 140,
      "Î": 141,
      "Ï": 142,
      "Ð": 143,
      "Ñ": 144,
      "Ò": 145,
      "Ó": 146,
      "Ô": 147,
      "Õ": 148,
      "Ö": 149,
      "×": 150,
      "Ø": 151,
      "Ù": 152,
      "Ú": 153,
      "Û": 154,
      "Ü": 155,
      "Ý": 156,
      "Þ": 157,
      "ß": 158,
      "à": 159,
      "á": 160,
      "â": 161,
      "ã": 162,
      "ä": 163,
      "å": 164,
      "æ": 165,
      "ç": 166,
      "è": 167,
      "é": 168,
      "ê": 169,
      "ë": 170,
      "ì": 171,
      "í": 172,
      "î": 173,
      "ï": 174,
      "ð": 175,
      "ñ": 176,
      "ò": 177,
      "ó": 178,
      "ô": 179,
      "õ": 180,
      "ö": 181,
      "÷": 182,
      "ø": 183,
      "ù": 184,
      "ú": 185,
      "û": 186,
      "ü": 187,
      "ý": 188,
      "þ": 189,
      "ÿ": 190,
      "Ā": 191,
      "ā": 192,
      "Ă": 193,
      "ă": 194,
      "Ą": 195,
      "ą": 196,
      "Ć": 197,
      "ć": 198,
      "Ĉ": 199,
      "ĉ": 200,
      "Ċ": 201,
      "ċ": 202,
      "Č": 203,
      "č": 204,
      "Ď": 205,
      "ď": 206,
      "Đ": 207,
      "đ": 208,
      "Ē": 209,
      "ē": 210,
      "Ĕ": 211,
      "ĕ": 212,
      "Ė": 213,
      "ė": 214,
      "Ę": 215,
      "ę": 216,
      "Ě": 217,
      "ě": 218,
      "Ĝ": 219,
      "ĝ": 220,
      "Ğ": 221,
      "ğ": 222,
      "Ġ": 223,
      "ġ": 224,
      "Ģ": 225,
      "ģ": 226,
      "Ĥ": 227,
      "ĥ": 228,
      "Ħ": 229,
      "ħ": 230,
      "Ĩ": 231,
      "ĩ": 232,
      "Ī": 233,
      "ī": 234,
      "Ĭ": 235,
      "ĭ": 236,
      "Į": 237,
      "į": 238,
      "İ": 239,
      "ı": 240,
      "Ĳ": 241,
      "ĳ": 242,
      "Ĵ": 243,
      "ĵ": 244,
      "Ķ": 245,
      "ķ": 246,
      "ĸ": 247,
      "Ĺ": 248,
      "ĺ": 249,
      "Ļ": 250,
      "ļ": 251,
      "Ľ": 252,
      "ľ": 253,
      "Ŀ": 254,
      "ŀ": 255,
      "Ł": 256,
      "ł": 257,
      "Ń": 258,
      "ä¸": 259,
      "ï¼": 260,
      "ãĢ": 261,
      "ãĢĤ": 262,
      "ï¼Į": 263,
      "çļ": 264,
      "çļĦ": 265,
      "im": 266,
      "<|": 267,
      "|>": 268,
      "ä»": 269,
      "åı": 270,
      "äº": 271,
      "è¯": 272,
      "æľ": 273,
      "æĪ": 274,
      "ar": 275,
      "en": 276,
      "st": 277,
      "art": 278,
      "end": 279,
      "start": 280,
      "æĸ": 281,
      "è¿": 282,
      "å¤": 283,
      "ä¸Ģ": 284,
      "åħ": 285,
      "ä½": 286,
      "æĺ": 287,
      "Ġ<|": 288,
      "å®": 289,
      "ãĢĤ<|": 290,
      "åĲ": 291,
      "åŃ": 292,
      "çĶ": 293,
      "åľ": 294,
      "åĪ": 295,
      "ä¹": 296,
      "æĪĳ": 297,
      "ç»": 298,
      "ï¼ļ": 299,
      "ä¸ª": 300,
      "æĺ¯": 301,
      "æĸĩ": 302,
      "åĬ": 303,
      "å°": 304,
      "ãĢģ": 305,
      "ä»¥": 306,
      "åĴ": 307,
      "åĴĮ": 308,
      "æľī": 309,
      "æĹ": 310,
      "åľ¨": 311,
      "åĨ": 312,
      "ä¸Ń": 313,
      "åĽ": 314,
      "è¿Ļ": 315,
      "åĩ": 316,
      "è®": 317,
      "äºĨ": 318,
      "åı¥": 319,
      "å¸": 320,
      "é¢": 321,
      "äºº": 322,
      "åŃĲ": 323,
      "ä¸ĭ": 324,
      "éĩ": 325,
      "ä¸º": 326,
      "å¥": 327,
      "æı": 328,
      "ĥ½": 329,
      "å¾": 330,
      "éĹ": 331,
      "åº": 332,
      "è¡": 333,
      "æł": 334,
      "å¹": 335,
      "åį": 336,
      "æĿ": 337,
      "âĢ": 338,
      "ä¸Ģä¸ª": 339,
      "ä¼": 340,
      "å½": 341,
      "è¦": 342,
      "ä¸į": 343,
      "å¤©": 344,
      "è¦ģ": 345,
      "å·": 346,
      "æĪĲ": 347,
      "æıĲ": 348,
      "æŃ": 349,
      "æī": 350,
      "èĥ½": 351,
      "åĮ": 352,
      "æ°": 353,
      "åİ": 354,
      "éĢ": 355,
      "éĿ": 356,
      "åı¯": 357,
      "åı¥åŃĲ": 358,
      "ç«": 359,
      "çİ": 360,
      "åĩº": 361,
      "æĢ": 362,
      "æľ¬": 363,
      "æĬ": 364,
      "çĶŁ": 365,
      "å¯": 366,
      "æĥ": 367,
      "çī": 368,
      "ç§": 369,
      "ï¼Ł": 370,
      "æĽ": 371,
      "é¢ĺ": 372,
      "è§": 373,
      "æĦ": 374,
      "æķ": 375,
      "å¼": 376,
      "çŃ": 377,
      "æŀ": 378,
      "æĻ": 379,
      "ä¿": 380,
      "ç»Ļ": 381,
      "çĽ": 382,
      "ä»ĸ": 383,
      "æ³": 384,
      "ä½ł": 385,
      "åĳ": 386,
      "å¥½": 387,
      "åĵ": 388,
      "çĶ¨": 389,
      "ä»¬": 390,
      "ä¸Ĭ": 391,
      "å®ļ": 392,
      "èĢ": 393,
      "è¯·": 394,
      "è¡Į": 395,
      "ä¾": 396,
      "ç«ł": 397,
      "è¯į": 398,
      "è¯Ń": 399,
      "å¿": 400,
      "æĶ": 401,
      "åĨĻ": 402,
      "æĸĩç«ł": 403,
      "åħ¶": 404,
      "åħ³": 405,
      "è¾": 406,
      "æĸĩæľ¬": 407,
      "æµ": 408,
      "æĽ´": 409,
      "æį": 410,
      "ç®": 411,
      "æĭ": 412,
      "æĤ": 413,
      "äºİ": 414,
      "åĪ°": 415,
      "æĿ¥": 416,
      "åı¯ä»¥": 417,
      "é£": 418,
      "æ¬": 419,
      "æİ": 420,
      "çĲ": 421,
      "éĹ®": 422,
      "ä»¥ä¸ĭ": 423,
      "èĩ": 424,
      "æĸ°": 425,
      "éĶ": 426,
      "¦Ĥ": 427,
      "èµ": 428,
      "æ²": 429,
      "æ¸": 430,
      "å°Ĩ": 431,
      "çº": 432,
      "æ°Ķ": 433,
      "åŃ¦": 434,
      "æĹ¶": 435,
      "æľĢ": 436,
      "å±": 437,
      "çľ": 438,
      "åľ°": 439,
      "åĸ": 440,
      "âĢĿ": 441,
      "æ´": 442,
      "æ¯": 443,
      "å¤§": 444,
      "å¾Ī": 445,
      "ä½¿": 446,
      "åıĸ": 447,
      "ä¹Ī": 448,
      "æĤ¨": 449,
      "éĩį": 450,
      "éĿ¢": 451,
      "ä¼ļ": 452,
      "å¯¹": 453,
      "æį®": 454,
      "è´": 455,
      "çŁ": 456,
      "å¤ļ": 457,
      "æ±": 458,
      "å¦Ĥ": 459,
      "çĤ": 460,
      "æ³ķ": 461,
      "éľ": 462,
      "âĢľ": 463,
      "æĺİ": 464,
      "æĮ": 465,
      "åĬ¨": 466,
      "ç±": 467,
      "çĶµ": 468,
      "ä½ĵ": 469,
      "å¹¶": 470,
      "çī©": 471,
      "å·¥": 472,
      "ä½ľ": 473,
      "åģ": 474,
      "å½±": 475,
      "åİ»": 476,
      "åĲį": 477,
      "çĦ": 478,
      "éĻ": 479,
      "è¿Ľ": 480,
      "æĥħ": 481,
      "åĪĨ": 482,
      "å¸¸": 483,
      "åŁ": 484,
      "åĬł": 485,
      "èĩª": 486,
      "éĺ": 487,
      "ä¾Ľ": 488,
      "äºĽ": 489,
      "ç¯": 490,
      "ç»Ļå®ļ": 491,
      "ä¸»": 492,
      "æĸ¹": 493,
      "éģ": 494,
      "å®¶": 495,
      "æģ": 496,
      "åıĳ": 497,
      "æıĲä¾Ľ": 498,
      "å°ı": 499,
      "åĽ½": 500,
      "è½": 501,
      "çİ°": 502,
      "çĦ¶": 503,
      "éĹ®é¢ĺ": 504,
      "è°": 505,
      "æł¹": 506,
      "åĸľ": 507,
      "ç±»": 508,
      "ç¯ĩ": 509,
      "å®ĥ": 510,
      "ä»Ģ": 511,
      "éľĢ": 512,
      "èī": 513,
      "æĦŁ": 514,
      "æ¬¢": 515,
      "è¿Ļä¸ª": 516,
      "ä»Ģä¹Ī": 517,
      "é«": 518,
      "æŀľ": 519,
      "çŃī": 520,
      "ç¾": 521,
      "è¶": 522,
      "æł¹æį®": 523,
      "è¯Ŀ": 524,
      "é«ĺ": 525,
      "èĬ": 526,
      "æĦı": 527,
      "ä»İ": 528,
      "æŃ£": 529,
      "æĪĸ": 530,
      "çĤ¹": 531,
      "åī": 532,
      "æīĢ": 533,
      "è¿ĩ": 534,
      "çĶŁæĪĲ": 535,
      "åħ¬": 536,
      "åĲĮ": 537,
      "ç®Ģ": 538,
      "åºĶ": 539,
      "åĽł": 540,
      "ä½Ĩ": 541,
      "æĪĳä»¬": 542,
      "ä¿Ŀ": 543,
      "å¾Ĺ": 544,
      "çŃĶ": 545,
      "å®ŀ": 546,
      "éľĢè¦ģ": 547,
      "æĻº": 548,
      "é¦": 549,
      "åĸľæ¬¢": 550,
      "åĬĽ": 551,
      "çĲĨ": 552,
      "éĩĮ": 553,
      "ç©": 554,
      "çľĭ": 555,
      "çĽ¸": 556,
      "éĤ": 557,
      "åįķ": 558,
      "ä¹ĭ": 559,
      "æłĩ": 560,
      "æĥ³": 561,
      "æŁ": 562,
      "éĽ": 563,
      "ç¼": 564,
      "æ®": 565,
      "å¹´": 566,
      "æľº": 567,
      "æıĲåıĸ": 568,
      "ç¾İ": 569,
      "è¯Ĺ": 570,
      "éĿŀ": 571,
      "ä¸ŃçļĦ": 572,
      "é¡": 573,
      "è¿Ľè¡Į": 574,
      "ä¿¡": 575,
      "æķ°": 576,
      "æĹł": 577,
      "ç¬": 578,
      "æĻºèĥ½": 579,
      "çĶµå½±": 580,
      "å¤©æ°Ķ": 581,
      "æĶ¹": 582,
      "çĸ": 583,
      "è¿°": 584,
      "åŃĹ": 585,
      "è¡¨": 586,
      "å½ĵ": 587,
      "å»": 588,
      "åº¦": 589,
      "æ¡": 590,
      "çķ": 591,
      "ç»ı": 592,
      "ç§į": 593,
      "å¿ĥ": 594,
      "æĢ§": 595,
      "è§£": 596,
      "èī²": 597,
      "éĹ´": 598,
      "äºĭ": 599,
      "èĲ": 600,
      "èģ": 601,
      "èĭ": 602,
      "æģ¯": 603,
      "åĢ": 604,
      "é£İ": 605,
      "æ®µ": 606,
      "åĵģ": 607,
      "åĽŀ": 608,
      "æ²¡": 609,
      "å¸Ĥ": 610,
      "åĮĸ": 611,
      "éĶĻ": 612,
      "æĹ¥": 613,
      "ä¹ī": 614,
      "èį": 615,
      "å¥½çļĦ": 616,
      "éķ": 617,
      "éĿŀå¸¸": 618,
      "è·": 619,
      "è¨": 620,
      "éĥ": 621,
      "ç³": 622,
      "æĬĢ": 623,
      "è¯¥": 624,
      "åĲİ": 625,
      "å¢": 626,
      "åĮħ": 627,
      "ä»¥ä¸ĭåı¥åŃĲ": 628,
      "æ°´": 629,
      "ä»Ĭ": 630,
      "å»º": 631,
      "çĲĥ": 632,
      "æ¯Ķ": 633,
      "çĭ": 634,
      "å¸®": 635,
      "è¨Ģ": 636,
      "èĤ": 637,
      "åīį": 638,
      "ç¯ĩæĸĩç«ł": 639,
      "çĿ": 640,
      "éļ": 641,
      "åĲĪ": 642,
      "åŀ": 643,
      "ç¨": 644,
      "ç½": 645,
      "å¼Ģ": 646,
      "èĢħ": 647,
      "éģĵ": 648,
      "è¿ĺ": 649,
      "ä¸¤": 650,
      "äººå·¥": 651,
      "éĥ½": 652,
      "ç»Ļå®ļçļĦ": 653,
      "çİ¯": 654,
      "ç¡": 655,
      "éĤ£": 656,
      "ä¿¡æģ¯": 657,
      "äººå·¥æĻºèĥ½": 658,
      "ä¹ł": 659,
      "é£Ł": 660,
      "ãĢĤâĢĿ": 661,
      "è¯´": 662,
      "ç¤": 663,
      "æ·": 664,
      "çĪ": 665,
      "ä½ķ": 666,
      "éķ¿": 667,
      "åħ¥": 668,
      "æµ·": 669,
      "çĥ": 670,
      "ä¸ī": 671,
      "æ²¡æľī": 672,
      "éĢļ": 673,
      "å¤Ħ": 674,
      "åĲĹ": 675,
      "ä½¿åħ¶": 676,
      "åħ·": 677,
      "ä¸İ": 678,
      "èµ·": 679,
      "çĻ": 680,
      "åĪ«": 681,
      "ç´": 682,
      "ä¹Ł": 683,
      "ç¿": 684,
      "ä¸ĢäºĽ": 685,
      "åı¥è¯Ŀ": 686,
      "èĻ": 687,
      "ç¡®": 688,
      "ä¸ļ": 689,
      "å®¹": 690,
      "åĨħ": 691,
      "èĢĮ": 692,
      "åıĺ": 693,
      "åįķè¯į": 694,
      "éĥ¨": 695,
      "å¥¹": 696,
      "æ¡Ī": 697,
      "ãĢĭ": 698,
      "ãĢĬ": 699,
      "åĵª": 700,
      "åĿ": 701,
      "è®®": 702,
      "åħ¨": 703,
      "æĳ": 704,
      "æĭ¬": 705,
      "æĺ¯ä¸Ģ": 706,
      "æĢĿ": 707,
      "ä¹¦": 708,
      "è¢": 709,
      "æİ¨": 710,
      "ç»ĵ": 711,
      "æłĩé¢ĺ": 712,
      "æ´»": 713,
      "è®¡": 714,
      "è¿Ļç¯ĩæĸĩç«ł": 715,
      "çŁ¥": 716,
      "éĶ®": 717,
      "å¤ª": 718,
      "æ¸¸": 719,
      "éŁ": 720,
      "åķ": 721,
      "åĳĬ": 722,
      "çĽ®": 723,
      "åı¤": 724,
      "æ¶": 725,
      "æĽ´åĬł": 726,
      "ç¼ĸ": 727,
      "å±±": 728,
      "å¼ı": 729,
      "åħ³éĶ®": 730,
      "å§": 731,
      "ï¼ģ": 732,
      "è®©": 733,
      "æľ¯": 734,
      "å°ĳ": 735,
      "åŃ¦ä¹ł": 736,
      "ç§ĳ": 737,
      "æ¼": 738,
      "ä¹Ĳ": 739,
      "æıı": 740,
      "çī¹": 741,
      "ä»£": 742,
      "éĢī": 743,
      "é¥": 744,
      "åĽłä¸º": 745,
      "ç¥": 746,
      "åŀĭ": 747,
      "çł": 748,
      "æ±Ĥ": 749,
      "çŁŃ": 750,
      "çĹ": 751,
      "åĲ«": 752,
      "æ»": 753,
      "åŁİ": 754,
      "è¿ĳ": 755,
      "ä»»": 756,
      "çļĦåı¥åŃĲ": 757,
      "åħ³äºİ": 758,
      "åģ¥": 759,
      "ä»Ĭå¤©": 760,
      "åİŁ": 761,
      "ä½¿çĶ¨": 762,
      "ç¨ĭ": 763,
      "ï¼Ł<|": 764,
      "åĬ©": 765,
      "å°½": 766,
      "çĿĢ": 767,
      "è®º": 768,
      "èĪ": 769,
      "é©": 770,
      "åı¸": 771,
      "çģ": 772,
      "ç³»": 773,
      "æııè¿°": 774,
      "æľª": 775,
      "åĬ¡": 776,
      "å£": 777,
      "æ¨": 778,
      "ä½į": 779,
      "æĢ»": 780,
      "éĩı": 781,
      "åľº": 782,
      "æĸŃ": 783,
      "é»": 784,
      "ä»¶": 785,
      "é¤": 786,
      "åĮ»": 787,
      "åĲĥ": 788,
      "åıª": 789,
      "é¤Ĳ": 790,
      "ä¸ĸ": 791,
      "èİ": 792,
      "èĬ±": 793,
      "éĢĤ": 794,
      "æµģ": 795,
      "èº": 796,
      "åĪĹ": 797,
      "æĮģ": 798,
      "è¯¯": 799,
      "çĮ": 800,
      "æ¸ħ": 801,
      "ä¸ĭéĿ¢": 802,
      "æŃĮ": 803,
      "é¦ĸ": 804,
      "å±ķ": 805,
      "æ´ģ": 806,
      "ä¸ŃæıĲåıĸ": 807,
      "æł¼": 808,
      "çĶŁæĪĲä¸Ģä¸ª": 809,
      "æŃ¤": 810,
      "è¾¾": 811,
      "æĬ¥": 812,
      "é¢Ħ": 813,
      "æĺŁ": 814,
      "é¢Ĩ": 815,
      "æľĪ": 816,
      "äº§": 817,
      "è¢«": 818,
      "è¾ĵ": 819,
      "å·²": 820,
      "éĩįåĨĻ": 821,
      "ç»Ń": 822,
      "ä¸»é¢ĺ": 823,
      "èº«": 824,
      "çĪ±": 825,
      "åħ¬åı¸": 826,
      "å¢ĥ": 827,
      "åºĶçĶ¨": 828,
      "åıĬ": 829,
      "çŃĶæ¡Ī": 830,
      "éħ": 831,
      "æīĭ": 832,
      "çĶ±": 833,
      "åĽŀçŃĶ": 834,
      "ç©º": 835,
      "æŃ¥": 836,
      "æŀģ": 837,
      "éĶĻè¯¯": 838,
      "è¯ķ": 839,
      "æī¾": 840,
      "å¤ĸ": 841,
      "èĲ½": 842,
      "è½¦": 843,
      "ä»ĸä»¬": 844,
      "æ¯ı": 845,
      "å®ŀä½ĵ": 846,
      "ç»Ļåĩº": 847,
      "ä¸¤ä¸ª": 848,
      "é¸": 849,
      "æĮĩ": 850,
      "èĬĤ": 851,
      "æĻ¯": 852,
      "æĺ¯ä»Ģä¹Ī": 853,
      "ç®¡": 854,
      "åĻ": 855,
      "å°±": 856,
      "ç®Ģæ´ģ": 857,
      "é¡¹": 858,
      "éŁ³": 859,
      "åĪĽ": 860,
      "å½¢": 861,
      "èı": 862,
      "åĮħæĭ¬": 863,
      "æľŁ": 864,
      "åıĹ": 865,
      "æ¨¡": 866,
      "è¯Ĩ": 867,
      "å»ºè®®": 868,
      "æĹħ": 869,
      "ä¸Ģä¸ĭ": 870,
      "åº·": 871,
      "è¯Ńè¨Ģ": 872,
      "åĻ¨": 873,
      "åĮĹ": 874,
      "åĨ³": 875,
      "è¯ī": 876,
      "æº": 877,
      "Â·": 878,
      "åģļ": 879,
      "åŁŁ": 880,
      "èĥ": 881,
      "è°¢": 882,
      "åĪ¶": 883,
      "ç¿»": 884,
      "ç®Ĺ": 885,
      "éĹ»": 886,
      "æīĢæľī": 887,
      "éĺ³": 888,
      "æĹ¶éĹ´": 889,
      "æĶ¾": 890,
      "æ¸©": 891,
      "åĪ©": 892,
      "æĬĢæľ¯": 893,
      "ç»Ħ": 894,
      "éĴ": 895,
      "æĻļ": 896,
      "çķĮ": 897,
      "å¹³": 898,
      "äº¤": 899,
      "èĦ": 900,
      "åĳĬè¯ī": 901,
      "æļ": 902,
      "ãĢĤ\\": 903,
      "å¦Ĥæŀľ": 904,
      "ç¦": 905,
      "å®Į": 906,
      "åģ¥åº·": 907,
      "åħī": 908,
      "çĭĹ": 909,
      "è¯»": 910,
      "ï¼ļâĢľ": 911,
      "ä¹°": 912,
      "è§Ĥ": 913,
      "æŁ¥": 914,
      "è¥": 915,
      "æł·": 916,
      "æĳĺ": 917,
      "è¯ĳ": 918,
      "äºĨä¸Ģ": 919,
      "éª": 920,
      "ç»ĻæĪĳ": 921,
      "å¿«": 922,
      "æĺĵ": 923,
      "é¢ĨåŁŁ": 924,
      "çĸĹ": 925,
      "æ£": 926,
      "ç¿»è¯ĳ": 927,
      "åŁİå¸Ĥ": 928,
      "åı¯èĥ½": 929,
      "å·¥ä½ľ": 930,
      "çĬ": 931,
      "éĽ¨": 932,
      "æĹłæ³ķ": 933,
      "åĲ¦": 934,
      "å¦Ĥä½ķ": 935,
      "è¥¿": 936,
      "åĽŃ": 937,
      "è¯Ħ": 938,
      "è±": 939,
      "ä¸»è¦ģ": 940,
      "æ¢": 941,
      "åİĨ": 942,
      "çº¢": 943,
      "çº¦": 944,
      "åĩı": 945,
      "äº¬": 946,
      "å¸®åĬ©": 947,
      "åı·": 948,
      "æ·±": 949,
      "éĩĳ": 950,
      "ä¸ŃåĽ½": 951,
      "åĵį": 952,
      "ç¬¬": 953,
      "æľį": 954,
      "ãĢĤ\"": 955,
      "çļĦå¤©æ°Ķ": 956,
      "åŃĺ": 957,
      "åĳĬè¯īæĪĳ": 958,
      "åı£": 959,
      "å®ī": 960,
      "åĨħå®¹": 961,
      "æĺ¯ä¸Ģä¸ª": 962,
      "äºĶ": 963,
      "æĥħæĦŁ": 964,
      "çĹħ": 965,
      "çİ¯å¢ĥ": 966,
      "å²": 967,
      "æĪĳçļĦ": 968,
      "ä¸ĸçķĮ": 969,
      "åĳĺ": 970,
      "æ¬¡": 971,
      "åĩł": 972,
      "è®¾": 973,
      "è¿Ĳ": 974,
      "åįģ": 975,
      "åħ³éĶ®è¯į": 976,
      "è¾ĳ": 977,
      "çİ°åľ¨": 978,
      "åĪĨç±»": 979,
      "åĳ¨": 980,
      "ä½¿åħ¶æĽ´åĬł": 981,
      "æĸ°éĹ»": 982,
      "è¶£": 983,
      "æį¢": 984,
      "å§ĭ": 985,
      "çľŁ": 986,
      "åı¤è¯Ĺ": 987,
      "éĩįè¦ģ": 988,
      "åı²": 989,
      "åıĭ": 990,
      "çĻ½": 991,
      "è¦ģæ±Ĥ": 992,
      "å·±": 993,
      "åıĳå±ķ": 994,
      "èıľ": 995,
      "ç«ĭ": 996,
      "èĩªçĦ¶": 997,
      "å®ĥä»¬": 998,
      "ä¾ĭ": 999,
      "æĳĺè¦ģ": 1000,
      "åĮº": 1001,
      "å½±åĵį": 1002,
      "ç²": 1003,
      "è¯Ńæ³ķ": 1004,
      "åĶ": 1005,
      "æķ°æį®": 1006,
      "çİ¯ä¿Ŀ": 1007,
      "éĵ": 1008,
      "æĦıæĢĿ": 1009,
      "è§ī": 1010,
      "äºĮ": 1011,
      "èģĶ": 1012,
      "æķħ": 1013,
      "ç§ĭ": 1014,
      "æĬĬ": 1015,
      "èĩªå·±": 1016,
      "ä¸Ģæ®µ": 1017,
      "åĲĳ": 1018,
      "è§ģ": 1019,
      "ç»Ł": 1020,
      "æľĢè¿ĳ": 1021,
      "æĬ¤": 1022,
      "åĢĻ": 1023,
      "èįĲ": 1024,
      "æĪ·": 1025,
      "éĹ¨": 1026,
      "åĲ¬": 1027,
      "ç§°": 1028,
      "çı": 1029,
      "å¤´": 1030,
      "äººç±»": 1031,
      "æľªæĿ¥": 1032,
      "æĺ¨": 1033,
      "æł¹æį®ç»Ļå®ļçļĦ": 1034,
      "æİ¨èįĲ": 1035,
      "è´¨": 1036,
      "æºĲ": 1037,
      "æĹ©": 1038,
      "ç½ĳ": 1039,
      "åħ·ä½ĵ": 1040,
      "åħ´": 1041,
      "ä»·": 1042,
      "ç¤¾": 1043,
      "éļ¾": 1044,
      "åĪ°äºĨ": 1045,
      "ä¿®": 1046,
      "çħ": 1047,
      "å¤Ł": 1048,
      "çĽ¸åħ³": 1049,
      "åĩĨ": 1050,
      "çĮ«": 1051,
      "å¸¦": 1052,
      "æľĽ": 1053,
      "æĪĳæĥ³": 1054,
      "çłĶ": 1055,
      "ä¼ł": 1056,
      "ç¼ĸè¾ĳ": 1057,
      "ä½łçļĦ": 1058,
      "æİĴ": 1059,
      "ç¤º": 1060,
      "ä¹īè¯į": 1061,
      "çĶŁæ´»": 1062,
      "èĮ": 1063,
      "æĺ¥": 1064,
      "ä¸Ģåı¥è¯Ŀ": 1065,
      "æ¶Ī": 1066,
      "å¤į": 1067,
      "èĢĥ": 1068,
      "åºı": 1069,
      "åħĭ": 1070,
      "é©¬": 1071,
      "èĢģ": 1072,
      "åĬ¨çī©": 1073,
      "åıį": 1074,
      "å¯¼": 1075,
      "æ¼Ķ": 1076,
      "å¼º": 1077,
      "å®¢": 1078,
      "æĪĲè¯Ń": 1079,
      "è·¯": 1080,
      "åįĹ": 1081,
      "çĥŃ": 1082,
      "æīĵ": 1083,
      "æľºåĻ¨": 1084,
      "æĶ¹åĨĻ": 1085,
      "æķĪ": 1086,
      "åĳ³": 1087,
      "äºĳ": 1088,
      "åĮĹäº¬": 1089,
      "è½¬": 1090,
      "ä¸ľ": 1091,
      "ç»ŃåĨĻ": 1092,
      "åĬŁ": 1093,
      "åĨį": 1094,
      "åĪ¤": 1095,
      "æīį": 1096,
      "æ¦Ĥ": 1097,
      "è¿Ļåı¥è¯Ŀ": 1098,
      "æĸ¯": 1099,
      "è¾ĵåħ¥": 1100,
      "è®¤": 1101,
      "èĳ": 1102,
      "å·²ç»ı": 1103,
      "å¼ķ": 1104,
      "å¤ı": 1105,
      "åħ¶ä»ĸ": 1106,
      "æĪĺ": 1107,
      "ä¸Ķ": 1108,
      "èĭ±": 1109,
      "è¯·éĹ®": 1110,
      "æ³¨": 1111,
      "éĢł": 1112,
      "å°½ç®¡": 1113,
      "å¼ł": 1114,
      "æĶ¿": 1115,
      "æĭ©": 1116,
      "çİĭ": 1117,
      "ç©¶": 1118,
      "ä¸įåĲĮ": 1119,
      "éĢļè¿ĩ": 1120,
      "ä»½": 1121,
      "å¾Īå¤ļ": 1122,
      "èµĽ": 1123,
      "éĩįæĸ°": 1124,
      "æĸ°çļĦ": 1125,
      "ãĢĤâĢĿ<|": 1126,
      "çŁ¥éģĵ": 1127,
      "éĢīæĭ©": 1128,
      "ç§¯": 1129,
      "åĽĽ": 1130,
      "è§Ĩ": 1131,
      "æİ¥": 1132,
      "åĮ»çĸĹ": 1133,
      "å¡": 1134,
      "åºĶè¯¥": 1135,
      "æĢģ": 1136,
      "æķĻ": 1137,
      "ĊĊ": 1138,
      "åħ±": 1139,
      "åĥ": 1140,
      "ç¿»è¯ĳæĪĲ": 1141,
      "èĭ¹": 1142,
      "æĸĻ": 1143,
      "æĺ¯åĲ¦": 1144,
      "èĭ¹æŀľ": 1145,
      "è¶³": 1146,
      "è½»": 1147,
      "åĳ¢": 1148,
      "æĿ¡": 1149,
      "æ»¡": 1150,
      "å¹¿": 1151,
      "æŀĲ": 1152,
      "æĸĩç«łä¸ŃæıĲåıĸ": 1153,
      "æĸ¹æ³ķ": 1154,
      "ä»¥ä¸ĭæĸĩæľ¬": 1155,
      "åŃĺåľ¨": 1156,
      "åķĨ": 1157,
      "èİ·": 1158,
      "é¥®": 1159,
      "å½ĵçĦ¶": 1160,
      "åıĤ": 1161,
      "è¡¨è¾¾": 1162,
      "çīĩ": 1163,
      "æŃ£åľ¨": 1164,
      "çļĦéĹ®é¢ĺ": 1165,
      "æĺİå¤©": 1166,
      "æµĭ": 1167,
      "åĪ¤æĸŃ": 1168,
      "ä½Ĩæĺ¯": 1169,
      "éŁ³ä¹Ĳ": 1170,
      "åįİ": 1171,
      "çłĶç©¶": 1172,
      "æ¨¡åŀĭ": 1173,
      "åĪĴ": 1174,
      "æĸ¹å¼ı": 1175,
      "åħĥ": 1176,
      "è£": 1177,
      "è®¸": 1178,
      "é¦Ļ": 1179,
      "æĪĳåĸľæ¬¢": 1180,
      "æıĲé«ĺ": 1181,
      "åĨµ": 1182,
      "åİħ": 1183,
      "åĪĨæŀĲ": 1184,
      "çļĦä¿¡æģ¯": 1185,
      "è¿ĻäºĽ": 1186,
      "åĳ½": 1187,
      "æİ¢": 1188,
      "åħ¨çĲĥ": 1189,
      "çĶ±äºİ": 1190,
      "å¦": 1191,
      "å¤ľ": 1192,
      "è¿ĺæĺ¯": 1193,
      "è®°": 1194,
      "ç´¢": 1195,
      "çļĦäºº": 1196,
      "ä¸Ģç¯ĩ": 1197,
      "åĩıå°ĳ": 1198,
      "æĸ¹éĿ¢": 1199,
      "ç»Ĩ": 1200,
      "æĪĸèĢħ": 1201,
      "ä¿ĿæĬ¤": 1202,
      "çħ§": 1203,
      "ä¼ĺ": 1204,
      "åĲĦ": 1205,
      "è´Ń": 1206,
      "åŁº": 1207,
      "éļı": 1208,
      "èĥ½å¤Ł": 1209,
      "äº§åĵģ": 1210,
      "çļĦæĸĩæľ¬": 1211,
      "æĺ¨å¤©": 1212,
      "è±¡": 1213,
      "ä¸ĩ": 1214,
      "å¥³": 1215,
      "å³": 1216,
      "è¶ħ": 1217,
      "ä¾¿": 1218,
      "èĩ´": 1219,
      "æ´»åĬ¨": 1220,
      "æĸĩç«łä¸Ń": 1221,
      "ä¸½": 1222,
      "ä»ĸçļĦ": 1223,
      "æľĭ": 1224,
      "å¤ĩ": 1225,
      "åĽ¾": 1226,
      "å£°": 1227,
      "ç¥ŀ": 1228,
      "é¤Ĳåİħ": 1229,
      "ä»¥åıĬ": 1230,
      "åİĨåı²": 1231,
      "é£ŀ": 1232,
      "åħ¬åĽŃ": 1233,
      "å¢ŀ": 1234,
      "æĲ": 1235,
      "ç¾İåĽ½": 1236,
      "æĪĳåı¯ä»¥": 1237,
      "ä½¿åħ¶æĽ´": 1238,
      "æĢ»ç»ĵ": 1239,
      "ä½İ": 1240,
      "è®¡ç®Ĺ": 1241,
      "ä¸ºæĤ¨": 1242,
      "æ²»": 1243,
      "æĸ½": 1244,
      "èĻ½": 1245,
      "åĥı": 1246,
      "èķ": 1247,
      "å¸®æĪĳ": 1248,
      "æĢİ": 1249,
      "åĮħåĲ«": 1250,
      "åĵªäºĽ": 1251,
      "æħ": 1252,
      "è¯ĨåĪ«": 1253,
      "ä¸Ģé¦ĸ": 1254,
      "ä»»åĬ¡": 1255,
      "ç¬¦": 1256,
      "æĿİ": 1257,
      "åĭ": 1258,
      "ï¼Ľ": 1259,
      "æĽ¿": 1260,
      "çĽ´": 1261,
      "çĭ¬": 1262,
      "æľĭåıĭ": 1263,
      "è¶Ĭ": 1264,
      "è¾¹": 1265,
      "ç§ĳæĬĢ": 1266,
      "éĺŁ": 1267,
      "æĦŁåĪ°": 1268,
      "åĩºå¤Ħ": 1269,
      "èµĦ": 1270,
      "æķ´": 1271,
      "ä»ĭ": 1272,
      "èįī": 1273,
      "æŃ£ç¡®": 1274,
      "æŁĵ": 1275,
      "å°ıæĺİ": 1276,
      "åł": 1277,
      "çºł": 1278,
      "é»Ħ": 1279,
      "æķ£": 1280,
      "èĩ³": 1281,
      "å¤±": 1282,
      "æĶ¶": 1283,
      "00": 1284,
      "ä¼¼": 1285,
      "å®ĮæĪĲ": 1286,
      "æĪĲè¯Ńåĩºå¤Ħ": 1287,
      "åĲįç§°": 1288,
      "ç¢": 1289,
      "ï¼ī": 1290,
      "åİ»äºĨ": 1291,
      "æ®µèĲ½": 1292,
      "æľīè¶£": 1293,
      "æĬ±": 1294,
      "æŀĹ": 1295,
      "è¿ĲåĬ¨": 1296,
      "æĹħæ¸¸": 1297,
      "è®²": 1298,
      "åģĩ": 1299,
      "æĽ´å¤ļ": 1300,
      "æľīåħ³": 1301,
      "æĺİäºĨ": 1302,
      "é²": 1303,
      "å°Ŀ": 1304,
      "æīĢä»¥": 1305,
      "ä»İæĸĩç«łä¸ŃæıĲåıĸ": 1306,
      "å°Ķ": 1307,
      "éĤ£ä¹Ī": 1308,
      "åı¶": 1309,
      "èĻĳ": 1310,
      "æłĳ": 1311,
      "è°ĥ": 1312,
      "çģ«": 1313,
      "å¸ĥ": 1314,
      "ç´ł": 1315,
      "èģĬ": 1316,
      "ï¼Ī": 1317,
      "äººä»¬": 1318,
      "æŀĦ": 1319,
      "çĲĨè§£": 1320,
      "èĽ": 1321,
      "å·´": 1322,
      "åŃ£": 1323,
      "è¿ľ": 1324,
      "çİĩ": 1325,
      "ä¿ĿæĮģ": 1326,
      "è®¨": 1327,
      "ç¦»": 1328,
      "çĬ¶": 1329,
      "åıĳçİ°": 1330,
      "çª": 1331,
      "æ°ĳ": 1332,
      "å°ıè¯´": 1333,
      "æķħäºĭ": 1334,
      "åĦ": 1335,
      "ä¸ªäºº": 1336,
      "å¨": 1337,
      "éĩįåĨĻä»¥ä¸ĭåı¥åŃĲ": 1338,
      "å¿ħ": 1339,
      "è·ĳ": 1340,
      "éĻ©": 1341,
      "ä»¤": 1342,
      "èĻ½çĦ¶": 1343,
      "ç¬ĳ": 1344,
      "æ¹": 1345,
      "è®¡åĪĴ": 1346,
      "ç§¯æŀģ": 1347,
      "åºĹ": 1348,
      "æĬ½": 1349,
      "æĶ¯": 1350,
      "èµ°": 1351,
      "æĪ¿": 1352,
      "åħ¶ä¸Ń": 1353,
      "çļĦé£İ": 1354,
      "æĿ¾": 1355,
      "ç»į": 1356,
      "éĢŁ": 1357,
      "æĭī": 1358,
      "ä½¿åħ¶æĽ´åĬłç®Ģæ´ģ": 1359,
      "æĤ¨çļĦ": 1360,
      "ç§ĳåŃ¦": 1361,
      "æĪĳä»¬çļĦ": 1362,
      "éħĴ": 1363,
      "ç²¾": 1364,
      "çļĦçĶµå½±": 1365,
      "è¯¢": 1366,
      "é¦Ĩ": 1367,
      "äººåĲį": 1368,
      "çİ©": 1369,
      "è§Ħ": 1370,
      "é¢ĦæĬ¥": 1371,
      "å¤§çļĦ": 1372,
      "å¤ĦçĲĨ": 1373,
      "åħ·æľī": 1374,
      "æľįåĬ¡": 1375,
      "åħ³ç³»": 1376,
      "è®¸å¤ļ": 1377,
      "åĪĻ": 1378,
      "èī²çļĦ": 1379,
      "ç®Ģåįķ": 1380,
      "æ¯ĶèµĽ": 1381,
      "åĴĸ": 1382,
      "åıĺåĮĸ": 1383,
      "\"<|": 1384,
      "ä¸¤ä¸ªåı¥åŃĲ": 1385,
      "æ¥": 1386,
      "åħĪ": 1387,
      "å³°": 1388,
      "åĲ¸": 1389,
      "è¯·æıĲä¾Ľ": 1390,
      "ä¸Ģä¸ªåı¥åŃĲ": 1391,
      "æī¾åĪ°": 1392,
      "æĢİä¹Ī": 1393,
      "è¯Ħè®º": 1394,
      "æļĸ": 1395,
      "éĩĬ": 1396,
      "åķ¡": 1397,
      "AI": 1398,
      "åĴĸåķ¡": 1399,
      "æĽ²": 1400,
      "æŃī": 1401,
      "æ¢¦": 1402,
      "ä¸īä¸ª": 1403,
      "ä¹ĭä¸Ģ": 1404,
      "å¸Į": 1405,
      "ä¸įèĥ½": 1406,
      "æĭ¼": 1407,
      "é±": 1408,
      "ä»ĭç»į": 1409,
      "æĽ¿æį¢": 1410,
      "çĳ": 1411,
      "é±¼": 1412,
      "ä»į": 1413,
      "æ±¡": 1414,
      "20": 1415,
      "çļĦæĸĩç«ł": 1416,
      "å¸Ī": 1417,
      "éĻį": 1418,
      "é¸Ł": 1419,
      "ç±»åŀĭ": 1420,
      "æľĢé«ĺ": 1421,
      "é¾": 1422,
      "èĤ²": 1423,
      "å£«": 1424,
      "æ¦Ĥæĭ¬": 1425,
      "æĬ±æŃī": 1426,
      "åıĪ": 1427,
      "éªĮ": 1428,
      "æĪĳä¼ļ": 1429,
      "è¯ĹæŃĮ": 1430,
      "çİ°ä»£": 1431,
      "æĸĩåŃĹ": 1432,
      "å·ŀ": 1433,
      "è§£åĨ³": 1434,
      "éĢīé¡¹": 1435,
      "ç»¿": 1436,
      "æĥħåĨµ": 1437,
      "æĮī": 1438,
      "åı°": 1439,
      "åį³": 1440,
      "è¾ĥ": 1441,
      "åĦ¿": 1442,
      "ä¸Ģèµ·": 1443,
      "ç»ĩ": 1444,
      "èĵ": 1445,
      "äºļ": 1446,
      "ä¾ĭå¦Ĥ": 1447,
      "æİª": 1448,
      "è®¤ä¸º": 1449,
      "è¡£": 1450,
      "çĻ¾": 1451,
      "åĢ¼": 1452,
      "å¤ªéĺ³": 1453,
      "èº«ä½ĵ": 1454,
      "èĩªå·±çļĦ": 1455,
      "æ±¡æŁĵ": 1456,
      "çº¿": 1457,
      "åĨĽ": 1458,
      "ä¸¾": 1459,
      "ä½ľä¸º": 1460,
      "å¾·": 1461,
      "ç½®": 1462,
      "èĳĹ": 1463,
      "æľīä»Ģä¹Ī": 1464,
      "å°Ĩåħ¶": 1465,
      "æ¤": 1466,
      "è¾ĵåĩº": 1467,
      "æĬ½åıĸ": 1468,
      "ç®ĢçŁŃ": 1469,
      "éĻ¤": 1470,
      "åĲĮä¹īè¯į": 1471,
      "ç«Ļ": 1472,
      "åĨĻä¸Ģä¸ª": 1473,
      "ä¸ºä»Ģä¹Ī": 1474,
      "æĹħè¡Į": 1475,
      "çĨ": 1476,
      "æ²Ļ": 1477,
      "æ±Ł": 1478,
      "é£Łçī©": 1479,
      "éĥ¨çĶµå½±": 1480,
      "åľ°çĲĥ": 1481,
      "äº«": 1482,
      "ç»ĥ": 1483,
      "æĭ¼åĨĻ": 1484,
      "æĸĩåĮĸ": 1485,
      "æĴ": 1486,
      "å½Ĵ": 1487,
      "æīĢæľīçļĦ": 1488,
      "è¿Ļä¸ªåı¥åŃĲ": 1489,
      "ä¿®æĶ¹": 1490,
      "å±ŀ": 1491,
      "éĻ¢": 1492,
      "æĩ": 1493,
      "çĶ»": 1494,
      "éĨ": 1495,
      "åºľ": 1496,
      "æ²³": 1497,
      "ä»İè¿Ļç¯ĩæĸĩç«ł": 1498,
      "å°Ŀè¯ķ": 1499,
      "æĤ¨åı¯ä»¥": 1500,
      "é¹": 1501,
      "å¼Ģå§ĭ": 1502,
      "éĢĤåĲĪ": 1503,
      "è¿Ļæĺ¯ä¸Ģ": 1504,
      "å°Ĩä»¥ä¸ĭåı¥åŃĲ": 1505,
      "è´Ł": 1506,
      "çĽ¸åĲĮ": 1507,
      "åĸĦ": 1508,
      "é¥®é£Ł": 1509,
      "çļĦåºĶçĶ¨": 1510,
      "æľºåĻ¨åŃ¦ä¹ł": 1511,
      "çĦ¶åĲİ": 1512,
      "åįĥ": 1513,
      "æİªæĸ½": 1514,
      "éĩĩ": 1515,
      "ç»Ħç»ĩ": 1516,
      "è§Ĵ": 1517,
      "åįĩ": 1518,
      "çķħ": 1519,
      "ä¹ĭéĹ´": 1520,
      "æĿ¯": 1521,
      "çļĦä¸»è¦ģ": 1522,
      "å¾Īå¥½": 1523,
      "æ°ĶåĢĻ": 1524,
      "å·§": 1525,
      "åĬ¿": 1526,
      "çŃīçŃī": 1527,
      "ç±³": 1528,
      "æĪı": 1529,
      "çļĦåľ°": 1530,
      "éĿĴ": 1531,
      "åĲ§": 1532,
      "è¿Ļæ®µ": 1533,
      "æĪĲä¸º": 1534,
      "ç»ĵæŀľ": 1535,
      "éĺħ": 1536,
      "çīĽ": 1537,
      "æµİ": 1538,
      "å¯»": 1539,
      "æ¯į": 1540,
      "å¯¼èĩ´": 1541,
      "çŃĸ": 1542,
      "ä»»ä½ķ": 1543,
      "æĪĲåĬŁ": 1544,
      "æŁĲ": 1545,
      "è°ģ": 1546,
      "å¾®": 1547,
      "åŃ©": 1548,
      "èĤī": 1549,
      "è¿ŀ": 1550,
      "èħ": 1551,
      "åĬª": 1552,
      "ç¤¾ä¼ļ": 1553,
      "æ¸ħæĻ": 1554,
      "å¸ĮæľĽ": 1555,
      "äººçļĦ": 1556,
      "èĲ¥": 1557,
      "è§ĤçĤ¹": 1558,
      "çļĦåįķè¯į": 1559,
      "é»ĳ": 1560,
      "å¾Ģ": 1561,
      "çŁ³": 1562,
      "åħħ": 1563,
      "èĦĳ": 1564,
      "åĽłæŃ¤": 1565,
      "åĬªåĬĽ": 1566,
      "åī§": 1567,
      "ç©¿": 1568,
      "åİĭ": 1569,
      "ç»Ī": 1570,
      "ä½łèĥ½": 1571,
      "å½¢å®¹": 1572,
      "è¿ĺæľī": 1573,
      "æīįèĥ½": 1574,
      "æľĹ": 1575,
      "èµ·æĿ¥": 1576,
      "ä¸ĸçķĮä¸Ĭ": 1577,
      "èģĮ": 1578,
      "çŁŃè¯Ń": 1579,
      "ä½łåı¯ä»¥": 1580,
      "æĺ¯ä¸Ģç§į": 1581,
      "åĨ³å®ļ": 1582,
      "éĶĢ": 1583,
      "è°¢è°¢": 1584,
      "éĿĻ": 1585,
      "åĲįåŃĹ": 1586,
      "åĨ°": 1587,
      "æ¯ıå¤©": 1588,
      "ç¨ĭåºı": 1589,
      "äº®": 1590,
      "æ°´æŀľ": 1591,
      "çķĻ": 1592,
      "é¡º": 1593,
      "æĪĳä¸į": 1594,
      "éĽĨ": 1595,
      "æł¡": 1596,
      "æ¬¾": 1597,
      "å±ħ": 1598,
      "åĨ·": 1599,
      "é¥Ń": 1600,
      "éĩİ": 1601,
      "è´¹": 1602,
      "éĻħ": 1603,
      "äºĨè§£": 1604,
      "é¼": 1605,
      "åħ»": 1606,
      "å®ĥçļĦ": 1607,
      "æĪĳæĹłæ³ķ": 1608,
      "ä¸Ģç§į": 1609,
      "éĺħè¯»": 1610,
      "åı¤è¯Ĺç»ŃåĨĻ": 1611,
      "å¿µ": 1612,
      "åĲĮæĹ¶": 1613,
      "èĥľ": 1614,
      "å¯Ĵ": 1615,
      "åĸĿ": 1616,
      "èĽĭ": 1617,
      "æµª": 1618,
      "åĲ«ä¹ī": 1619,
      "æ¿": 1620,
      "åĵªä¸ª": 1621,
      "åĩĨç¡®": 1622,
      "çĸ¾": 1623,
      "éĢģ": 1624,
      "æ±ī": 1625,
      "éĺ²": 1626,
      "çļĦå½±åĵį": 1627,
      "è¯įè¯Ń": 1628,
      "æĪĳå¾Ī": 1629,
      "ç³»ç»Ł": 1630,
      "æ£Ģ": 1631,
      "ä¸ĭåĪĹ": 1632,
      "æ½": 1633,
      "è®¡ç®Ĺæľº": 1634,
      "é¢ĺçĽ®": 1635,
      "ï¼ģ<|": 1636,
      "çĿ¡": 1637,
      "æ©": 1638,
      "ç»´": 1639,
      "è¯Ńæ³ķéĶĻè¯¯": 1640,
      "èĶ": 1641,
      "å¯Į": 1642,
      "çļĦæłĩé¢ĺ": 1643,
      "ç»ıæµİ": 1644,
      "èĵĿ": 1645,
      "æĵ": 1646,
      "å°¼": 1647,
      "çĶ¨æĪ·": 1648,
      "èŀ": 1649,
      "åıĤåĬł": 1650,
      "å¸Ĥåľº": 1651,
      "éĻĲ": 1652,
      "åĬŀ": 1653,
      "æ¸ħæĻ°": 1654,
      "ä¸Ģä»½": 1655,
      "å¾ħ": 1656,
      "æ´²": 1657,
      "æ°Ķæ¸©": 1658,
      "è¯Ĭ": 1659,
      "10": 1660,
      "çļĦé£İæł¼": 1661,
      "åįĪ": 1662,
      "ä¸ĵ": 1663,
      "æĮĳ": 1664,
      "æ»©": 1665,
      "çĵ": 1666,
      "æľĿ": 1667,
      "æĹ©ä¸Ĭ": 1668,
      "éĤ®": 1669,
      "è¿İ": 1670,
      "é¡»": 1671,
      "å®¤": 1672,
      "å®³": 1673,
      "ä»İè¿Ļç¯ĩæĸĩç«łä¸ŃæıĲåıĸ": 1674,
      "è¿Ļéĥ¨çĶµå½±": 1675,
      "çıŃ": 1676,
      "éĥ½æĺ¯": 1677,
      "éº": 1678,
      "å½ĵçĦ¶åı¯ä»¥": 1679,
      "èĥ½åĬĽ": 1680,
      "è¿Ļæĺ¯": 1681,
      "æĹ¶åĢĻ": 1682,
      "è¯·æıĲåıĸ": 1683,
      "æıĲä¾Ľä¸Ģä¸ª": 1684,
      "æĿĲ": 1685,
      "æķ£æŃ¥": 1686,
      "å¯Ĩ": 1687,
      "äº¤éĢļ": 1688,
      "ĥåľ": 1689,
      "æ¯Ķå¦Ĥ": 1690,
      "ä¸įæĺ¯": 1691,
      "ç¾İä¸½": 1692,
      "æµģçķħ": 1693,
      "âĢĿãĢĤ": 1694,
      "å¤ļå°ĳ": 1695,
      "å¥ĩ": 1696,
      "é¢ľ": 1697,
      "æĶ¿åºľ": 1698,
      "åŀĥåľ": 1699,
      "åŀĥåľ¾": 1700,
      "æĬ½åıĸåĩº": 1701,
      "è¯·åĳĬè¯īæĪĳ": 1702,
      "æĭ¥": 1703,
      "æ¸¸æĪı": 1704,
      "æľ¬ä¹¦": 1705,
      "éħį": 1706,
      "é¸¡": 1707,
      "çĸ«": 1708,
      "çłģ": 1709,
      "æľĢåĸľæ¬¢": 1710,
      "æĺ¾": 1711,
      "åĽ´": 1712,
      "åħį": 1713,
      "ç½Ĺ": 1714,
      "çľ¼": 1715,
      "åĩºçİ°": 1716,
      "éĺ³åħī": 1717,
      "å®īåħ¨": 1718,
      "__": 1719,
      "äºĨä¸Ģä¸ª": 1720,
      "äºĴ": 1721,
      "æĥĬ": 1722,
      "ä¼ģ": 1723,
      "çľĭçĶµå½±": 1724,
      "èİ·å¾Ĺ": 1725,
      "ä¸Ńç«ĭ": 1726,
      "éģĩ": 1727,
      "çļĦæĦıæĢĿ": 1728,
      "å¤ıå¤©": 1729,
      "æĸĩæľ¬ä¸Ń": 1730,
      "ä¸Ĭæµ·": 1731,
      "å¾ĭ": 1732,
      "çīĮ": 1733,
      "éĽª": 1734,
      "è¯·ä½ł": 1735,
      "å°Ĩä»¥ä¸ĭ": 1736,
      "å®ĺ": 1737,
      "ä¸Ģç¯ĩæĸĩç«ł": 1738,
      "èĥ½æºĲ": 1739,
      "èŀį": 1740,
      "ç³ĸ": 1741,
      "ä¸įéĶĻ": 1742,
      "åĩłä¸ª": 1743,
      "åª": 1744,
      "æĻ´": 1745,
      "çĽ¾": 1746,
      "æ¼«": 1747,
      "è®©æĪĳ": 1748,
      "ä»·æł¼": 1749,
      "åŃ¦çĶŁ": 1750,
      "ç»Ŀ": 1751,
      "æĸĩä¸Ń": 1752,
      "çĸ¾çĹħ": 1753,
      "ä¼ļè®®": 1754,
      "ä¸ĬçļĦ": 1755,
      "çĶ·": 1756,
      "çŁĽ": 1757,
      "èķ´": 1758,
      "æĸĩè¨Ģ": 1759,
      "æīĭæľº": 1760,
      "èĩªåĬ¨": 1761,
      "å¯¹äºİ": 1762,
      "æĸĩè¨Ģæĸĩ": 1763,
      "æķĻèĤ²": 1764,
      "ç»Ļåĩºä¸Ģä¸ª": 1765,
      "æ±ĩ": 1766,
      "çŁĽçĽ¾": 1767,
      "æľ«": 1768,
      "åİŁå§ĭ": 1769,
      "æ¸©åº¦": 1770,
      "çĤ¼": 1771,
      "æ³¢": 1772,
      "ç¡®å®ļ": 1773,
      "éŃ": 1774,
      "ä¸įåŃĺåľ¨": 1775,
      "äºĭä»¶": 1776,
      "æĳĦ": 1777,
      "çº½": 1778,
      "ç¼º": 1779,
      "èľ": 1780,
      "ç¥¨": 1781,
      "ç¦ı": 1782,
      "è¯ĬæĸŃ": 1783,
      "è¿Ļæĺ¯ä¸Ģä¸ª": 1784,
      "ä¼¤": 1785,
      "ä½³": 1786,
      "æ´ĭ": 1787,
      "ç»Ļå®ļä¸Ģä¸ª": 1788,
      "æķ°åŃĹ": 1789,
      "åľ°çĤ¹": 1790,
      "æıĲåĪ°": 1791,
      "å¸¦æĿ¥": 1792,
      "ä¼Ĺ": 1793,
      "è¯¦": 1794,
      "åºŃ": 1795,
      "æ³¨æĦı": 1796,
      "è´¨éĩı": 1797,
      "èķ´åĲ«": 1798,
      "åĿļ": 1799,
      "ä½ľèĢħ": 1800,
      "è¿Ļä¸ªéĹ®é¢ĺ": 1801,
      "äºī": 1802,
      "æĬ¥éģĵ": 1803,
      "æ°ĶåĢĻåıĺåĮĸ": 1804,
      "åıĳçĶŁ": 1805,
      "è´Ńä¹°": 1806,
      "åĽ°": 1807,
      "çļĦä¸Ģ": 1808,
      "çº½çº¦": 1809,
      "è¿Ļå®¶": 1810,
      "çĸĳ": 1811,
      "äº²": 1812,
      "å¥¶": 1813,
      "åľ¨å®¶": 1814,
      "çºłéĶĻ": 1815,
      "èīº": 1816,
      "æľīå¾Īå¤ļ": 1817,
      "æ³³": 1818,
      "åº§": 1819,
      "åĳ¼": 1820,
      "ç»ŃåĨĻåı¤è¯Ĺ": 1821,
      "æĮĳæĪĺ": 1822,
      "æŃ£éĿ¢": 1823,
      "æĻ®": 1824,
      "èĪŀ": 1825,
      "å¦Ĥæŀľä½ł": 1826,
      "ç¬¬ä¸Ģ": 1827,
      "æ±½": 1828,
      "äººå·¥æĻºèĥ½åľ¨": 1829,
      "ç¼ĸåĨĻ": 1830,
      "ç¼ĵ": 1831,
      "æĮīçħ§": 1832,
      "å²ģ": 1833,
      "ä¸´": 1834,
      "æ·»": 1835,
      "å½©": 1836,
      "å±ŀäºİ": 1837,
      "ä¸įåŃĺåľ¨å®ŀä½ĵ": 1838,
      "éĺ¿": 1839,
      "æ¿Ģ": 1840,
      "åħ·ä½ĵçļĦ": 1841,
      "éĻĪ": 1842,
      "åĲįè¯į": 1843,
      "æĪĳéľĢè¦ģ": 1844,
      "åħŃ": 1845,
      "æĦŁè§ī": 1846,
      "åĪĿ": 1847,
      "å¹²": 1848,
      "è¡¨çİ°": 1849,
      "æł¹æį®ä»¥ä¸ĭ": 1850,
      "èĩªçĦ¶è¯Ńè¨Ģ": 1851,
      "ä»İæĸĩç«łä¸ŃæıĲåıĸåĩº": 1852,
      "ç¬Ķ": 1853,
      "çĩ": 1854,
      "äºĭæĥħ": 1855,
      "æĲľ": 1856,
      "èĢĥèĻĳ": 1857,
      "ä¸įåĲĮçļĦ": 1858,
      "åĪļ": 1859,
      "åĮ»çĶŁ": 1860,
      "æĦıä¹ī": 1861,
      "æĸĩæľ¬ä¸ŃçļĦ": 1862,
      "é¾Ļ": 1863,
      "æĶ¹åıĺ": 1864,
      "åħ¶ä¸ŃçļĦ": 1865,
      "æİ¨çĲĨ": 1866,
      "éĴ±": 1867,
      "æ¥¼": 1868,
      "æľ¨": 1869,
      "è£ħ": 1870,
      "åĿĲ": 1871,
      "è¿½": 1872,
      "ä¸Ģåıª": 1873,
      "æĹ¨": 1874,
      "å®ŀçİ°": 1875,
      "ä»įçĦ¶": 1876,
      "éĤ®ä»¶": 1877,
      "ç¤¼": 1878,
      "æİ¢ç´¢": 1879,
      "éĢĤå½ĵ": 1880,
      "æĻļä¸Ĭ": 1881,
      "çİ°ä»£æĸĩ": 1882,
      "çļĦä¸»é¢ĺ": 1883,
      "åħ¸": 1884,
      "æ¤į": 1885,
      "æĤ¨éľĢè¦ģ": 1886,
      "åĽ¢": 1887,
      "æ¸¸æ³³": 1888,
      "è§£éĩĬ": 1889,
      "ï¼ļãĢĬ": 1890,
      "çº§": 1891,
      "çľĭåĪ°": 1892,
      "è®¨è®º": 1893,
      "ä¸ĭéĿ¢çļĦåı¥åŃĲ": 1894,
      "åģĩè®¾": 1895,
      "ç¿»è¯ĳæĪĲæĸĩè¨Ģæĸĩ": 1896,
      "åŃ¤": 1897,
      "å¹¶ä¸Ķ": 1898,
      "çł´": 1899,
      "æ³Ľ": 1900,
      "ç¾İé£Ł": 1901,
      "ç¿»è¯ĳæĪĲçİ°ä»£æĸĩ": 1902,
      "æĺĵäºİ": 1903,
      "æ²»çĸĹ": 1904,
      "åį´": 1905,
      "æĩĤ": 1906,
      "å½ĵåľ°": 1907,
      "è½¬æį¢": 1908,
      "Ġ\"": 1909,
      "çĹĩ": 1910,
      "é«ĺåħ´": 1911,
      "è¯¦ç»Ĩ": 1912,
      "çļĦéĩįè¦ģ": 1913,
      "è¯ģ": 1914,
      "ä½¿åħ¶æĽ´åĬłç®Ģæ´ģæĺİäºĨ": 1915,
      "çĶµåŃĲ": 1916,
      "èį¯": 1917,
      "åĵĪ": 1918,
      "éĴŁ": 1919,
      "æŁ¥è¯¢": 1920,
      "ä¸Ńæĸĩ": 1921,
      "å¥¥": 1922,
      "èī¯": 1923,
      "æŃ»": 1924,
      "æĬķ": 1925,
      "çĶµè§Ĩ": 1926,
      "æ±½è½¦": 1927,
      "æĮģç»Ń": 1928,
      "èĶ¬": 1929,
      "æĪĳåľ¨": 1930,
      "æľīè¶£çļĦ": 1931,
      "ç»ıå¸¸": 1932,
      "èĴ": 1933,
      "æł¹æį®æıĲä¾Ľ": 1934,
      "é¢Ħæµĭ": 1935,
      "é¡¹çĽ®": 1936,
      "æ£Ĵ": 1937,
      "çĪ±æĥħ": 1938,
      "èĲ¨": 1939,
      "æ¯Ķè¾ĥ": 1940,
      "åīįæıĲ": 1941,
      "çģµ": 1942,
      "ç¼ĸç¨ĭ": 1943,
      "åİŁåĽł": 1944,
      "è´ŁéĿ¢": 1945,
      "ä¸Ģç»Ħ": 1946,
      "ä¸Ĭæĸĩ": 1947,
      "ä¸¥": 1948,
      "åį¡": 1949,
      "èĳĹåĲį": 1950,
      "è§īå¾Ĺ": 1951,
      "æĽ´å¥½": 1952,
      "ä»¿": 1953,
      "çĽĬ": 1954,
      "å¢ŀåĬł": 1955,
      "ç®ĢçŁŃçļĦ": 1956,
      "åĲĽ": 1957,
      "åĶ®": 1958,
      "æĸĩç«łä¸ŃçļĦ": 1959,
      "çİī": 1960,
      "çĽ¸åħ³çļĦ": 1961,
      "æĿĤ": 1962,
      "å¼Ĥ": 1963,
      "éĢļå¸¸": 1964,
      "æİ§": 1965,
      "åįļ": 1966,
      "å¤«": 1967,
      "çļĦå¤©æ°Ķé¢ĦæĬ¥": 1968,
      "åĨĻè¯Ĺ": 1969,
      "åĪ»": 1970,
      "å¾ģ": 1971,
      "çĽ®åīį": 1972,
      "èĸ": 1973,
      "åĪĽå»º": 1974,
      "å®£": 1975,
      "éĶ»": 1976,
      "åĤ": 1977,
      "éĥ¨åĪĨ": 1978,
      "æĥ³è¦ģ": 1979,
      "èĹ": 1980,
      "éĶ»çĤ¼": 1981,
      "ä½ı": 1982,
      "åħ¬åı¸çļĦ": 1983,
      "æĲľç´¢": 1984,
      "åĲĦç§į": 1985,
      "æĽ¾": 1986,
      "åŃ¦æł¡": 1987,
      "è·ĳæŃ¥": 1988,
      "çĦ¦": 1989,
      "ä¹ħ": 1990,
      "æŃĮæĽ²": 1991,
      "åıįä¹īè¯į": 1992,
      "ä¸Ńå¿ĥ": 1993,
      "çºłæŃ£": 1994,
      "é²ľ": 1995,
      "å¹»": 1996,
      "å½¢å¼ı": 1997,
      "èĶ¬èıľ": 1998,
      "å¿Ļ": 1999,
      "åĲĪå¹¶": 2000,
      "ç½ĳç«Ļ": 2001,
      "æ¹ĸ": 2002,
      "ç»ª": 2003,
      "å¿«ä¹Ĳ": 2004,
      "ç®¡çĲĨ": 2005,
      "ä»¥ä¾¿": 2006,
      "ä»ĸä»¬çļĦ": 2007,
      "åħ´è¶£": 2008,
      "åĪĹè¡¨": 2009,
      "åĩī": 2010,
      "å¨ģ": 2011,
      "è¶ħè¿ĩ": 2012,
      "éĩįè¦ģçļĦ": 2013,
      "è¿Ļæł·": 2014,
      "è´Ńçī©": 2015,
      "ä¼ģä¸ļ": 2016,
      "ä¹Ŀ": 2017,
      "æ£ĢæŁ¥": 2018,
      "åı¦": 2019,
      "æĭ¼åĨĻéĶĻè¯¯": 2020,
      "çīĪ": 2021,
      "çĽ®æłĩ": 2022,
      "æĢ»æĺ¯": 2023,
      "èŃ": 2024,
      "å¿ħé¡»": 2025,
      "åİĭåĬĽ": 2026,
      "æŃ£ç¡®çļĦ": 2027,
      "..": 2028,
      "åľŁ": 2029,
      "èĮĥ": 2030,
      "éĩĩåıĸ": 2031,
      "å¸Ŀ": 2032,
      "åįĬ": 2033,
      "ç¹": 2034,
      "é¢ĳ": 2035,
      "è½¯": 2036,
      "ä¾Ŀ": 2037,
      "ç¬¦åı·": 2038,
      "åĩĨå¤ĩ": 2039,
      "è®Ń": 2040,
      "ç§ĭå¤©": 2041,
      "åĿĩ": 2042,
      "ä½Ĩä»ĸ": 2043,
      "ä½įç½®": 2044,
      "ä¸ĥ": 2045,
      "æķ°åŃ¦": 2046,
      "åĵªéĩĮ": 2047,
      "æĹ§": 2048,
      "æĪĳæ²¡æľī": 2049,
      "è¯Ńè¨Ģæ¨¡åŀĭ": 2050,
      "çŁ¥è¯Ĩ": 2051,
      "èĩªçĦ¶è¯Ńè¨Ģå¤ĦçĲĨ": 2052,
      "åľ°åĮº": 2053,
      "åĳ¨æľ«": 2054,
      "æłĩçĤ¹": 2055,
      "æ·»åĬł": 2056,
      "ä¸Ģåı¥": 2057,
      "å®Ŀ": 2058,
      "çľģ": 2059,
      "å½ķ": 2060,
      "æľĢé«ĺçļĦ": 2061,
      "åį°": 2062,
      "çĻ»": 2063,
      "æģ¶": 2064,
      "æ¬¢è¿İ": 2065,
      "çĶµèĦĳ": 2066,
      "è¯įæ±ĩ": 2067,
      "åĽ½å®¶": 2068,
      "ç»Ļå®ļçļĦåı¥åŃĲ": 2069,
      "é¢ľèī²": 2070,
      "çĥŁ": 2071,
      "æĺĵäºİçĲĨè§£": 2072,
      "æľīæķĪ": 2073,
      "çİĽ": 2074,
      "å®ŀä½ĵè¯ĨåĪ«": 2075,
      "å¿Ĺ": 2076,
      "æĶ¾æĿ¾": 2077,
      "èĿ": 2078,
      "åħ«": 2079,
      "äººå·¥æĻºèĥ½æĬĢæľ¯": 2080,
      "éĵ¶": 2081,
      "æĪĳæĺ¨å¤©": 2082,
      "åĨł": 2083,
      "çļĦè¯Ń": 2084,
      "ä½įäºİ": 2085,
      "æ²¹": 2086,
      "çıł": 2087,
      "æĸĩæľ¬è¿Ľè¡Į": 2088,
      "èĪª": 2089,
      "å¹¿æ³Ľ": 2090,
      "å¥¹çļĦ": 2091,
      "åĲĪéĢĤ": 2092,
      "æĸ¹æ¡Ī": 2093,
      "ä¼¦": 2094,
      "æĪĲä¸Ģä¸ª": 2095,
      "çļĦæĺ¯": 2096,
      "çļĦæĸ¹æ³ķ": 2097,
      "æĬ¥åĳĬ": 2098,
      "èµĦæºĲ": 2099,
      "çļĦåħ³éĶ®": 2100,
      "çļĦè¯Ńè¨Ģ": 2101,
      "é£Łåĵģ": 2102,
      "éģ¿": 2103,
      "èĪĴ": 2104,
      "è®¾è®¡": 2105,
      "å¿ĺ": 2106,
      "çľł": 2107,
      "åĩ»": 2108,
      "äº«åıĹ": 2109,
      "æıĲåıĸåĩº": 2110,
      "æĦī": 2111,
      "æ°ı": 2112,
      "ç¤¾äº¤": 2113,
      "ä¸ĭéĽ¨": 2114,
      "ä¸ĭæĸĩ": 2115,
      "æıĲåĩº": 2116,
      "âĢĶ": 2117,
      "çī¹å®ļ": 2118,
      "âĢĿï¼Į": 2119,
      "å¦ĤæŀľæĤ¨": 2120,
      "ç¾İåĳ³": 2121,
      "åı«": 2122,
      "æ¯Ľ": 2123,
      "å·¦": 2124,
      "éĵģ": 2125,
      "è¡ĮåĬ¨": 2126,
      "åıĮ": 2127,
      "æŃ¢": 2128,
      "èİ·åıĸ": 2129,
      "ç³ķ": 2130,
      "æĭ¥æľī": 2131,
      "çļĦä¸»": 2132,
      "æł¹æį®ç»Ļå®ļçļĦæĸĩæľ¬": 2133,
      "ä¹ĭéĹ´çļĦ": 2134,
      "ç©ºæ°Ķ": 2135,
      "èĭ±è¯Ń": 2136,
      "æĻ¯çĤ¹": 2137,
      "åħ°": 2138,
      "åıĺæļĸ": 2139,
      "åİŁåı¥": 2140,
      "æİ¨çĲĨåħ³ç³»": 2141,
      "å¤§åĪ©": 2142,
      "ä¸Ńç«ĭçŃĶæ¡Ī": 2143,
      "æİ¨çĲĨåħ³ç³»åĪ¤æĸŃ": 2144,
      "çĥ¤": 2145,
      "çĶ¨äºİ": 2146,
      "è®²è¿°": 2147,
      "ä¸ĢçĽ´": 2148,
      "Ġåħ¶": 2149,
      "éľĢæ±Ĥ": 2150,
      "çĤİ": 2151,
      "ä¹°äºĨ": 2152,
      "è´µ": 2153,
      "é¡¿": 2154,
      "åĪ©çĶ¨": 2155,
      "è¿Ļæľ¬ä¹¦": 2156,
      "çªģ": 2157,
      "åĬŁèĥ½": 2158,
      "ä¸įæĸŃ": 2159,
      "çķ¥": 2160,
      "ç¹ģ": 2161,
      "çĨĬ": 2162,
      "äº§çĶŁ": 2163,
      "å·®": 2164,
      "ä¸°": 2165,
      "å¹¸": 2166,
      "éĩĳèŀį": 2167,
      "ç±»åĪ«": 2168,
      "ä¹¡": 2169,
      "æ¨¡ä»¿": 2170,
      "ç¾¤": 2171,
      "ç¬¬äºĮ": 2172,
      "æłĩçĤ¹ç¬¦åı·": 2173,
      "åĲ¸å¼ķ": 2174,
      "åĪĩ": 2175,
      "äººå·¥æĻºèĥ½çļĦ": 2176,
      "è¶ĭ": 2177,
      "çĦ¦èĻĳ": 2178,
      "å©": 2179,
      "çĶ¨ä¸Ģåı¥è¯Ŀ": 2180,
      "çĶŁæĢģ": 2181,
      "æĹ¥æľŁ": 2182,
      "çĽĽ": 2183,
      "è¶³çĲĥ": 2184,
      "è¿Ļç¯ĩ": 2185,
      "çī¹åĪ«": 2186,
      "é©¾": 2187,
      "åĪ¶ä½ľ": 2188,
      "å°ģ": 2189,
      "æĺĵæĩĤ": 2190,
      "ç´§": 2191,
      "å°ļ": 2192,
      "ä»¤äºº": 2193,
      "åĸ»": 2194,
      "æĽ´å¤ļçļĦ": 2195,
      "æķĪçİĩ": 2196,
      "å¡ĳ": 2197,
      "æĺ¯ä»Ģä¹ĪæĦıæĢĿ": 2198,
      "æľĢåĸľæ¬¢çļĦ": 2199,
      "æĦ¿": 2200,
      "åĶ±": 2201,
      "èĥĮ": 2202,
      "è¿Ļç§į": 2203,
      "å½ĵåīį": 2204,
      "æĤ£": 2205,
      "æĽ´å¥½åľ°": 2206,
      "éľ²": 2207,
      "å¤§åŃ¦": 2208,
      "ä½łå¥½": 2209,
      "æľĢæĸ°": 2210,
      "æ¼Ķåĳĺ": 2211,
      "åģľ": 2212,
      "å°±æĺ¯": 2213,
      "åĨľ": 2214,
      "è´£": 2215,
      "çĶŁæĪĲä¸Ģé¦ĸ": 2216,
      "èķī": 2217,
      "åĪĹåĩº": 2218,
      "å¾ĹåĪ°": 2219,
      "éļıæĹ¶": 2220,
      "åĨ¬": 2221,
      "æ©Ļ": 2222,
      "æĦŁè°¢": 2223,
      "æĮĩå®ļ": 2224,
      "æľºåĻ¨äºº": 2225,
      "è¡Įä¸º": 2226,
      "å®«": 2227,
      "é£ĺ": 2228,
      "åģ¥èº«": 2229,
      "åı³": 2230,
      "å°ıæĹ¶": 2231,
      "åľºæĻ¯": 2232,
      "åĵģçīĮ": 2233,
      "ç¼ĸè¾ĳä»¥ä¸ĭåı¥åŃĲ": 2234,
      "ä¸įä¼ļ": 2235,
      "è¿ĩåİ»": 2236,
      "æĥħèĬĤ": 2237,
      "ä¸ºæĤ¨æıĲä¾Ľ": 2238,
      "ä¸Ģæ¬¡": 2239,
      "è¡Ĺ": 2240,
      "æ¬²": 2241,
      "ç»ľ": 2242,
      "çĶŁçī©": 2243,
      "åı¯èĥ½ä¼ļ": 2244,
      "æıĲåĪ°äºĨ": 2245,
      "ä»Ĭå¤©å¤©æ°Ķ": 2246,
      "æĪĳä»Ĭå¤©": 2247,
      "èģļ": 2248,
      "éĨĴ": 2249,
      "æµ·æ»©": 2250,
      "å°Ĩä¸ĭéĿ¢": 2251,
      "æĹ¥æľ¬": 2252,
      "ç»§": 2253,
      "å½¢å®¹è¯į": 2254,
      "éĿŀå¸¸å¥½": 2255,
      "çļĦè¯Ŀ": 2256,
      "æĶ¹åĸĦ": 2257,
      "ä»Ģä¹Īæĺ¯": 2258,
      "è¯¾": 2259,
      "çºª": 2260,
      "ç»ĵæŀĦ": 2261,
      "å¤©æ°Ķé¢ĦæĬ¥": 2262,
      "æĢ»ç»Ł": 2263,
      "ä½ĨæĪĳ": 2264,
      "é¦Ļèķī": 2265,
      "æķĳ": 2266,
      "ï¼ŁâĢĿ": 2267,
      "å®¶åºŃ": 2268,
      "æĶ¯æĮģ": 2269,
      "æĿĳ": 2270,
      "æ¯ıä¸ª": 2271,
      "é»İ": 2272,
      "èīºæľ¯": 2273,
      "é©¶": 2274,
      "æħ¢": 2275,
      "çĶŁåĳ½": 2276,
      "å±±å³°": 2277,
      "åį«": 2278,
      "æĸ°éĹ»æĬ¥éģĵ": 2279,
      "æĢ§çļĦ": 2280,
      "åŃ©åŃĲ": 2281,
      "åŁºäºİ": 2282,
      "åıĺå¾Ĺ": 2283,
      "éĻĦ": 2284,
      "å®ľ": 2285,
      "æīĢåľ¨": 2286,
      "éļĲ": 2287,
      "æ¸Ĳ": 2288,
      "åıĸæ¶Ī": 2289,
      "æ¯Ĵ": 2290,
      "ä¸ľè¥¿": 2291,
      "æ¼Ĥ": 2292,
      "ä¼ĳ": 2293,
      "åĮ»åŃ¦": 2294,
      "åĶĲ": 2295,
      "åĪĽéĢł": 2296,
      "ãĢĤ'": 2297,
      "ç§ĳåŃ¦å®¶": 2298,
      "å±Ģ": 2299,
      "ä¸Ģæ®µæĸĩæľ¬": 2300,
      "è¯·ä¸º": 2301,
      "è¡¨è¾¾äºĨ": 2302,
      "ç§Ģ": 2303,
      "åħ¨çĲĥåıĺæļĸ": 2304,
      "åĬ¨è¯į": 2305,
      "æŃ¦": 2306,
      "ä¸ºäºĨ": 2307,
      "è¸": 2308,
      "çĶŁäº§": 2309,
      "åĪ«åŃĹ": 2310,
      "ä»İè¿Ļç¯ĩæĸĩç«łä¸ŃæıĲåıĸåĩº": 2311,
      "ä½ľçĶ¨": 2312,
      "è¶ħå¸Ĥ": 2313,
      "çļĦåĲ«ä¹ī": 2314,
      "å·¨": 2315,
      "éĶĻåĪ«åŃĹ": 2316,
      "è¡Įä¸ļ": 2317,
      "å¼łä¸ī": 2318,
      "ç®Ĺæ³ķ": 2319,
      "ç§ĺ": 2320,
      "å¥ĸ": 2321,
      "æĭ¿": 2322,
      "æĢĢ": 2323,
      "åĲ¹": 2324,
      "æ°¸": 2325,
      "50": 2326,
      "èĻļ": 2327,
      "è¡¡": 2328,
      "è·³": 2329,
      "è®¢": 2330,
      "è´¢": 2331,
      "ç½ĳç»ľ": 2332,
      "çĶľ": 2333,
      "æī¾åĩº": 2334,
      "æĥħç»ª": 2335,
      "å°½ç®¡ä»ĸ": 2336,
      "GP": 2337,
      "åĪĽä½ľ": 2338,
      "åĨĻä¸Ģä¸ªæłĩé¢ĺ": 2339,
      "èĢĥè¯ķ": 2340,
      "åħµ": 2341,
      "è°·": 2342,
      "åŃĹæ¯į": 2343,
      "è¶ĭåĬ¿": 2344,
      "éĶĢåĶ®": 2345,
      "æĬ«": 2346,
      "å¾ĪæĬ±æŃī": 2347,
      "è·Ł": 2348,
      "æĬĢå·§": 2349,
      "èĢĮä¸Ķ": 2350,
      "ä»ħ": 2351,
      "æĭŁ": 2352,
      "æľĢå¤§çļĦ": 2353,
      "19": 2354,
      "æ¯Ķåĸ»": 2355,
      "èģĬå¤©": 2356,
      "è¿·": 2357,
      "æ²ī": 2358,
      "100": 2359,
      "æĪĳæľĢè¿ĳ": 2360,
      "çĽ¸ä¼¼": 2361,
      "GPT": 2362,
      "è¯Ħä»·": 2363,
      "ç¬ĳè¯Ŀ": 2364,
      "çļĦæĹ¶åĢĻ": 2365,
      "è®ºæĸĩ": 2366,
      "åı¯ä»¥å¸®åĬ©": 2367,
      "çļĦå»ºè®®": 2368,
      "æ¶Īæŀģ": 2369,
      "ç¼ĵè§£": 2370,
      "è¡ĮæĺŁ": 2371,
      "è¿Ł": 2372,
      "è¿ĻéĩĮ": 2373,
      "åģı": 2374,
      "æµ·æ´ĭ": 2375,
      "ä½Ļ": 2376,
      "èĮ¶": 2377,
      "èĩªçĶ±": 2378,
      "å®Ī": 2379,
      "å¿ĥçĲĨ": 2380,
      "çŁŃæĸĩ": 2381,
      "çŃĳ": 2382,
      "åĹ": 2383,
      "çģ¾": 2384,
      "å¯»æī¾": 2385,
      "ç®Ģæ´ģæĺİäºĨ": 2386,
      "èª": 2387,
      "åªĴ": 2388,
      "éĢĲ": 2389,
      "æĿĥ": 2390,
      "çĽĳ": 2391,
      "æľĢç»Ī": 2392,
      "ä½ĵéªĮ": 2393,
      "è°Ī": 2394,
      "åĸľæ¬¢åĲĥ": 2395,
      "çĹĽ": 2396,
      "éĴĪ": 2397,
      "éĢĤå½ĵçļĦ": 2398,
      "æĺŁæľŁ": 2399,
      "ç¥Ŀ": 2400,
      "éªĳ": 2401,
      "æĸ°éĹ»æłĩé¢ĺ": 2402,
      "æģĲ": 2403,
      "è¡£æľį": 2404,
      "ä»ĭç»įäºĨ": 2405,
      "è¿Ļå®¶é¤Ĳåİħ": 2406,
      "åĿĹ": 2407,
      "å¿Ĩ": 2408,
      "ç±į": 2409,
      "æ¤įçī©": 2410,
      "éĤ£éĩĮ": 2411,
      "åĺ": 2412,
      "çº³": 2413,
      "èİ«": 2414,
      "åķĬ": 2415,
      "çļ®": 2416,
      "åħ¬åĽŃéĩĮ": 2417,
      "åĳ¼åĲ¸": 2418,
      "å°Ĩä»¥ä¸ĭæĸĩæľ¬": 2419,
      "ä¸Ģå®ļ": 2420,
      "ä½¿å¾Ĺ": 2421,
      "çľŁçļĦ": 2422,
      "å¡ĳæĸĻ": 2423,
      "çĪ¶": 2424,
      "è®Ńç»ĥ": 2425,
      "åºķ": 2426,
      "åħ³æ³¨": 2427,
      "æ¬§": 2428,
      "åħĭåĬĽ": 2429,
      "å®¹æĺĵ": 2430,
      "åĪł": 2431,
      "ãĢĤ\"<|": 2432,
      "éĻįä½İ": 2433,
      "å·§åħĭåĬĽ": 2434,
      "å¹´è½»": 2435,
      "éĤ£ä¸ª": 2436,
      "æľīä¸Ģä¸ª": 2437,
      "æļ´": 2438,
      "æľīåĵªäºĽ": 2439,
      "æľ¬æĸĩ": 2440,
      "ä¹ĺ": 2441,
      "å®ĩ": 2442,
      "åį±": 2443,
      "åĪĽæĦı": 2444,
      "ä»£çłģ": 2445,
      "è·Ŀ": 2446,
      "æİ¢è®¨": 2447,
      "èŃ¦": 2448,
      "å®ł": 2449,
      "ï¼ļ'": 2450,
      "æĦıå¤§åĪ©": 2451,
      "è¿Ķ": 2452,
      "éĺ´": 2453,
      "æİĴæĶ¾": 2454,
      "è¡¨ç¤º": 2455,
      "èĭ¦": 2456,
      "ä¼½": 2457,
      "åı¯æĮģç»Ń": 2458,
      "ä»ĸåľ¨": 2459,
      "çĬ¹": 2460,
      "çļĦé£Łçī©": 2461,
      "æĦŁåıĹ": 2462,
      "ç§ĳå¹»": 2463,
      "æµĭè¯ķ": 2464,
      "çĳľ": 2465,
      "æĸĩæľ¬éĶĻè¯¯": 2466,
      "æł¸": 2467,
      "æĤ²": 2468,
      "çªĹ": 2469,
      "æĪĳå°Ĩ": 2470,
      "éŁµ": 2471,
      "ç´¯": 2472,
      "ä¸ĭæĿ¥": 2473,
      "åħħæ»¡": 2474,
      "çī©åĵģ": 2475,
      "å·´é»İ": 2476,
      "æ´¾": 2477,
      "éŀ": 2478,
      "æĺ¯çļĦ": 2479,
      "æĽ´æŃ£": 2480,
      "èģª": 2481,
      "æĺł": 2482,
      "åĿļæĮģ": 2483,
      "åĬ³": 2484,
      "ä¸ºç»Ļå®ļçļĦ": 2485,
      "æİ§åĪ¶": 2486,
      "æĪĳä»¬éľĢè¦ģ": 2487,
      "èĤ¡": 2488,
      "åĪĽå»ºä¸Ģä¸ª": 2489,
      "å²Ľ": 2490,
      "æĪ·å¤ĸ": 2491,
      "æĥ¯": 2492,
      "ä¼´": 2493,
      "è¯ŃæĢģ": 2494,
      "è®¿": 2495,
      "æ·±åº¦": 2496,
      "å¤©ç©º": 2497,
      "æľĢåĲİ": 2498,
      "å°½åĬĽ": 2499,
      "çļĦåħ³éĶ®è¯į": 2500,
      "çļĦåıĳå±ķ": 2501,
      "æĺ¯åľ¨": 2502,
      "æĬĢèĥ½": 2503,
      "ä¹³": 2504,
      "å¥ĭ": 2505,
      "åĭĩ": 2506,
      "ä¸ĵä¸ļ": 2507,
      "åĨĴ": 2508,
      "åĪĺ": 2509,
      "æ¯ıä¸ªäºº": 2510,
      "éģį": 2511,
      "çĥĪ": 2512,
      "æĺ¨æĻļ": 2513,
      "åĮ»çĸĹé¢ĨåŁŁ": 2514,
      "æĪĳä»¬åı¯ä»¥": 2515,
      "è½¬æį¢ä¸º": 2516,
      "éģ¿åħį": 2517,
      "èĳĹåĲįçļĦ": 2518,
      "çĳľä¼½": 2519,
      "ä»ĺ": 2520,
      "çļĦåĨħå®¹": 2521,
      "æĥħæĦŁåĪĨæŀĲ": 2522,
      "éĽħ": 2523,
      "åĬ¨è¯ŃæĢģ": 2524,
      "æľĢé«ĺçļĦå±±å³°": 2525,
      "çŃ¾": 2526,
      "è¿ĩç¨ĭ": 2527,
      "çīĽå¥¶": 2528,
      "æĸĩä¸ŃæīĢæľīçļĦ": 2529,
      "æĿ¡ä»¶": 2530,
      "ç¯®": 2531,
      "æĿ¥è¶Ĭ": 2532,
      "å´": 2533,
      "åĢĭ": 2534,
      "ç¿°": 2535,
      "æī§": 2536,
      "è¿Ļé¦ĸ": 2537,
      "æĬ½åıĸåĩºæĸĩä¸ŃæīĢæľīçļĦ": 2538,
      "æĬ½åıĸåĩºæĸĩä¸ŃæīĢæľīçļĦå®ŀä½ĵ": 2539,
      "æĬĺ": 2540,
      "åºĬ": 2541,
      "è¶ĬæĿ¥è¶Ĭ": 2542,
      "ä½ľåĵģ": 2543,
      "è®©äºº": 2544,
      "æķ°éĩı": 2545,
      "æĬĬè¿Ļåı¥è¯Ŀ": 2546,
      "åªĴä½ĵ": 2547,
      "æŀĿ": 2548,
      "çļĦçŃĶæ¡Ī": 2549,
      "èĭ±æĸĩ": 2550,
      "éģĹ": 2551,
      "çļĦæĸ°": 2552,
      "ä¸ªåŃĹ": 2553,
      "æ£®": 2554,
      "çļĩ": 2555,
      "è¯·ç»ĻæĪĳ": 2556,
      "æľĢå¥½çļĦ": 2557,
      "ä¸Ģæľ¬": 2558,
      "æľīäºĽ": 2559,
      "çļĦå¥½": 2560,
      "ä¸Ģä½į": 2561,
      "èĭı": 2562,
      "çģ¯": 2563,
      "ç®Ģæĺİ": 2564,
      "çļĦéĩįè¦ģæĢ§": 2565,
      "çĸ²": 2566,
      "å¼ĢæĶ¾": 2567,
      "çĶ°": 2568,
      "æ±ł": 2569,
      "ä¸Ģå®¶": 2570,
      "å¹´çļĦ": 2571,
      "ç«¯": 2572,
      "å°Ħ": 2573,
      "äººçī©": 2574,
      "å±Ĥ": 2575,
      "å»ºçŃĳ": 2576,
      "æ¼Ĥäº®": 2577,
      "é½": 2578,
      "çĮ®": 2579,
      "æ¾": 2580,
      "å¡Ķ": 2581,
      "ç»ıåİĨ": 2582,
      "çĽĸ": 2583,
      "åłĤ": 2584,
      "éĿ©": 2585,
      "åı¤ä»£": 2586,
      "éĢłæĪĲ": 2587,
      "èĭ¥": 2588,
      "èģªæĺİ": 2589,
      "åĪłéĻ¤": 2590,
      "çī¹çĤ¹": 2591,
      "è¡Ģ": 2592,
      "Ġ-": 2593,
      "è¿Ľè¡ĮæĶ¹åĨĻ": 2594,
      "æ³°": 2595,
      "è¿Ļç¯ĩæĸĩç«łä¸Ń": 2596,
      "åĪĽæĸ°": 2597,
      "æĭħ": 2598,
      "èģĶç³»": 2599,
      "èµı": 2600,
      "æĶ¹åĨĻä¸º": 2601,
      "æĶ¹ä¸º": 2602,
      "çĬ¶åĨµ": 2603,
      "å¤ıåŃ£": 2604,
      "ä¿ĥ": 2605,
      "ä¸ĭåįĪ": 2606,
      "ç§»": 2607,
      "çļĦå°ı": 2608,
      "åķĨåĵģ": 2609,
      "çļĦåŁİå¸Ĥ": 2610,
      "é©¾é©¶": 2611,
      "ä¸įå¥½": 2612,
      "çĸ«æĥħ": 2613,
      "è´¥": 2614,
      "å®Įæķ´": 2615,
      "å¤§éĩı": 2616,
      "å°Ĩå®ĥä»¬": 2617,
      "çĶ±äºİå¤©æ°Ķ": 2618,
      "æĦģ": 2619,
      "æĢİä¹Īæł·": 2620,
      "ç»Ļå®ļä¸Ģä¸ªåı¥åŃĲ": 2621,
      "ä¹Łåı¯ä»¥": 2622,
      "çļĦåľ°æĸ¹": 2623,
      "é¡ºåºı": 2624,
      "ï¼ļ\"": 2625,
      "è±Ĩ": 2626,
      "âĢĿãĢĤ<|": 2627,
      "æĪĳæĥ³çŁ¥éģĵ": 2628,
      "åıĹæ¬¢è¿İ": 2629,
      "èģĮä¸ļ": 2630,
      "åľ°æĸ¹": 2631,
      "åįı": 2632,
      "åľ¨è¿Ļä¸ª": 2633,
      "ä¹łæĥ¯": 2634,
      "å°ıçº¢": 2635,
      "ç¡®ä¿Ŀ": 2636,
      "æĬ«èĲ¨": 2637,
      "å®ļä¹ī": 2638,
      "åĿı": 2639,
      "éľľ": 2640,
      "çļĦæĥħæĦŁ": 2641,
      "åºŁ": 2642,
      "çİ¯å¢ĥä¿ĿæĬ¤": 2643,
      "è¾Ĩ": 2644,
      "åĢ¼å¾Ĺ": 2645,
      "ä¼łç»Ł": 2646,
      "è¡¨æĺİ": 2647,
      "éĸ": 2648,
      "éĢŁåº¦": 2649,
      "æĶ¹åĨĻæĪĲ": 2650,
      "ä¹Łæĺ¯": 2651,
      "çļĦæĦıæĢĿæĺ¯ä»Ģä¹Ī": 2652,
      "é¢Ŀ": 2653,
      "ä¸ŃçļĦå®ŀä½ĵ": 2654,
      "çīĻ": 2655,
      "å®łçī©": 2656,
      "çĿ¡çľł": 2657,
      "æĦıè¯Ĩ": 2658,
      "èģĶç½ĳ": 2659,
      "ç»©": 2660,
      "æ¢ħ": 2661,
      "åħ±åĲĮ": 2662,
      "äº¦": 2663,
      "æĶ¿çŃĸ": 2664,
      "ä»Ĭå¤©çļĦå¤©æ°Ķ": 2665,
      "æĿĲæĸĻ": 2666,
      "æĻ¨": 2667,
      "åĽ°éļ¾": 2668,
      "å®Ĺ": 2669,
      "è·Ŀç¦»": 2670,
      "äºĭå®ŀ": 2671,
      "å®ģ": 2672,
      "å¼Ģåıĳ": 2673,
      "éķ¿åº¦": 2674,
      "åĿ¦": 2675,
      "ä¹İ": 2676,
      "æĢĿèĢĥ": 2677,
      "èĹı": 2678,
      "çĶŁæĹ¥": 2679,
      "åĽ½éĻħ": 2680,
      "ä¸įåı¯": 2681,
      "æµĵ": 2682,
      "æľĢä½³": 2683,
      "å¤įæĿĤ": 2684,
      "æĤ¦": 2685,
      "æ¶ī": 2686,
      "æĽ¿æį¢ä¸º": 2687,
      "åĨ¥": 2688,
      "å¡«": 2689,
      "ä¸ĭåĪĹåı¥åŃĲ": 2690,
      "çļĦæķħäºĭ": 2691,
      "æ´Ĺ": 2692,
      "æµģè¡Į": 2693,
      "åĬłå¼º": 2694,
      "ä¸ĢæĿ¡": 2695,
      "åŃ£èĬĤ": 2696,
      "åĵ¦": 2697,
      "ç±»ä¼¼": 2698,
      "ç»§ç»Ń": 2699,
      "æļĹ": 2700,
      "ç»¿èī²": 2701,
      "æĶ¹æŃ£": 2702,
      "å·¥åħ·": 2703,
      "è©": 2704,
      "å·Ŀ": 2705,
      "é¼ĵ": 2706,
      "æĻ´æľĹ": 2707,
      "éĹŃ": 2708,
      "æĴŃ": 2709,
      "ç»ĥä¹ł": 2710,
      "ç§ģ": 2711,
      "ç¢³": 2712,
      "çļĦä¸»æĹ¨": 2713,
      "å®¢æĪ·": 2714,
      "å¯¿": 2715,
      "å§Ĩ": 2716,
      "åĽłä¸ºå®ĥ": 2717,
      "è½¯ä»¶": 2718,
      "ç¾İä¸½çļĦ": 2719,
      "æĿ¿": 2720,
      "æľºä¼ļ": 2721,
      "ä¸Ģéĥ¨": 2722,
      "å¸¸è§ģ": 2723,
      "æĪĳåİ»": 2724,
      "æĿĢ": 2725,
      "åģ¥åº·é¥®é£Ł": 2726,
      "ä¸Ģæł·": 2727,
      "æ°§": 2728,
      "ãĢĭãĢģ": 2729,
      "éĹ²": 2730,
      "éĨī": 2731,
      "çļĦæĳĺè¦ģ": 2732,
      "èİĵ": 2733,
      "æİĴåĪĹ": 2734,
      "ä¹±": 2735,
      "èĥ½åĲ¦": 2736,
      "é¡¾": 2737,
      "åģ¥åº·çļĦ": 2738,
      "æł¹æį®è¾ĵåħ¥": 2739,
      "å®ŀæĹ¶": 2740,
      "èĪ¬": 2741,
      "åĩºæĿ¥": 2742,
      "çº¦ç¿°": 2743,
      "åĵ¥": 2744,
      "å¹¿åĳĬ": 2745,
      "ä»¥ä¸ĭæĺ¯": 2746,
      "æī¿": 2747,
      "å»ºè®®æĤ¨": 2748,
      "ä¸Ĭä¸ĭæĸĩ": 2749,
      "æĸ°éĹ»æĸĩç«ł": 2750,
      "ä¸įè¦ģ": 2751,
      "è¿Ļæĺ¯ä¸Ģç¯ĩ": 2752,
      "å¹½": 2753,
      "å¯¹è¯Ŀ": 2754,
      "åĩºèī²": 2755,
      "åĢĴ": 2756,
      "ç©Ĩ": 2757,
      "æ´Ľ": 2758,
      "éĻĦè¿ĳ": 2759,
      "èĩªè¡Į": 2760,
      "é£İæł¼": 2761,
      "Ġå¥½çļĦ": 2762,
      "éĽ¶": 2763,
      "çļĦæĹ¶éĹ´": 2764,
      "åľ¨å®¶éĩĮ": 2765,
      "åºĶçĶ¨ç¨ĭåºı": 2766,
      "æĸĩåŃ¦": 2767,
      "å¾Ħ": 2768,
      "å¯Ĥ": 2769,
      "è¿ĺæľīåħ¶ä»ĸ": 2770,
      "ä»£è¡¨": 2771,
      "å¹¶æıĲä¾Ľ": 2772,
      "ä¹°äºĨä¸Ģ": 2773,
      "å¹¶è¾ĵåĩº": 2774,
      "è¯įè¯Ńæĺ¯ä»Ģä¹ĪæĦıæĢĿ": 2775,
      "éº¦": 2776,
      "åĽŀå®¶": 2777,
      "éĩįæĸ°ç¼ĸåĨĻ": 2778,
      "åıªæľī": 2779,
      "éĩįæĸ°åĨĻ": 2780,
      "éĢĶ": 2781,
      "çĬ¬": 2782,
      "ä¸Ĭè¿°": 2783,
      "å¿«éĢŁ": 2784,
      "ãĢĭãĢģãĢĬ": 2785,
      "åŃĺåľ¨åĵªäºĽ": 2786,
      "é¤Ĳé¦Ĩ": 2787,
      "æĽ°": 2788,
      "è´§": 2789,
      "æĪĳéĿŀå¸¸": 2790,
      "åı¯çĪ±": 2791,
      "çļĦä¸»è¦ģè§ĤçĤ¹": 2792,
      "ä¸ºä»¥ä¸ĭ": 2793,
      "éĿ¢åĮħ": 2794,
      "æİī": 2795,
      "èĻİ": 2796,
      "åŃĺåľ¨åĵªäºĽå®ŀä½ĵ": 2797,
      "æĸĩæľ¬çºłéĶĻ": 2798,
      "è¢ĭ": 2799,
      "æ¬£": 2800,
      "ç¬¦åĲĪ": 2801,
      "æĺ¯æĮĩ": 2802,
      "åĬ±": 2803,
      "æĶ»": 2804,
      "ä¹ĭåīį": 2805,
      "çº¢èī²": 2806,
      "æĪ¿éĹ´": 2807,
      "ä¸ĢæŃ¥": 2808,
      "åĵº": 2809,
      "æĸ¹åĲĳ": 2810,
      "éĴĪå¯¹": 2811,
      "æĸĹ": 2812,
      "å§ĵ": 2813,
      "åĽłç´ł": 2814,
      "éĢĹ": 2815,
      "è¯ŃéŁ³": 2816,
      "ä¹¦ç±į": 2817,
      "ä¸Ŀ": 2818,
      "çļĦåĲįç§°": 2819,
      "äº¡": 2820,
      "åĪº": 2821,
      "æĢ§åĴĮ": 2822,
      "å·¦åı³": 2823,
      "ä¸ĢåĲį": 2824,
      "è¯Ńæ³ķåĴĮ": 2825,
      "æĢ¥": 2826,
      "åĪĨåĪ«": 2827,
      "åľ£": 2828,
      "è°ĵ": 2829,
      "ä¸°å¯Į": 2830,
      "åĬłåħ¥": 2831,
      "ç»ıéªĮ": 2832,
      "ç¯®çĲĥ": 2833,
      "åħ³éĶ®ä¿¡æģ¯": 2834,
      "æµ®": 2835,
      "ç«¹": 2836,
      "æĦīå¿«": 2837,
      "æŁĶ": 2838,
      "æĸĩç«łä¸ŃæıĲåĪ°": 2839,
      "è¯·éĹ®æĤ¨": 2840,
      "âĢ¦": 2841,
      "GPTæ¨¡åŀĭ": 2842,
      "ä¿Ŀåģ¥": 2843,
      "ä¸ªèĭ¹æŀľ": 2844,
      "¡èĲ": 2845,
      "è¿ĶåĽŀ": 2846,
      "éķĩ": 2847,
      "æĪĳæŃ£åľ¨": 2848,
      "åľĨ": 2849,
      "å®ĥä»¬çļĦ": 2850,
      "çº·": 2851,
      "æĳĦæ°ı": 2852,
      "ç®ĢåįķçļĦ": 2853,
      "åĵºä¹³": 2854,
      "ä¸ĢæĿ¯": 2855,
      "èĮĥåĽ´": 2856,
      "ç»ĻæĪĳä¸Ģä¸ª": 2857,
      "åį·": 2858,
      "ä¸įè¿ĩ": 2859,
      "æıĲç¤º": 2860,
      "åľ°åĲį": 2861,
      "åıĸå¾Ĺ": 2862,
      "æĭĶ": 2863,
      "âĦ": 2864,
      "æ´ŀ": 2865,
      "âĦĥ": 2866,
      "ä»Ļ": 2867,
      "éĻĪè¿°": 2868,
      "æŁ¥æī¾": 2869,
      "ä»·åĢ¼": 2870,
      "å°ĺ": 2871,
      "æ°´å¹³": 2872,
      "å»¶": 2873,
      "ä¸ĸçķĮä¸ĬæľĢé«ĺçļĦå±±å³°": 2874,
      "ä¾ĭåŃĲ": 2875,
      "æĥ³æ³ķ": 2876,
      "æĤ¬": 2877,
      "å¯Ł": 2878,
      "è²": 2879,
      "æ·ĭ": 2880,
      "ä¸¥éĩį": 2881,
      "å°Ĭ": 2882,
      "è¯¥åı¥åŃĲ": 2883,
      "çĵľ": 2884,
      "ä¸įè¶ħè¿ĩ": 2885,
      "éĹ®åı¥": 2886,
      "æľĢè¿ĳçļĦ": 2887,
      "ç»ıåħ¸": 2888,
      "åįģåĪĨ": 2889,
      "å¤ªç©º": 2890,
      "å¸®æĤ¨": 2891,
      "åīįå¾Ģ": 2892,
      "è®©æĪĳä»¬": 2893,
      "è®¾å¤ĩ": 2894,
      "åºĨ": 2895,
      "åĨĻä½ľ": 2896,
      "å¼ĥ": 2897,
      "è¯·å¯¹": 2898,
      "åİ¿": 2899,
      "å¢ŀéķ¿": 2900,
      "çĬ¯": 2901,
      "ä¸Ģå¤©": 2902,
      "å¤ªéĺ³ç³»": 2903,
      "åĲİçļĦ": 2904,
      "æ¡¥": 2905,
      "èĤ¯": 2906,
      "çī¹å¾ģ": 2907,
      "åİ»åħ¬åĽŃ": 2908,
      "åħ³éĶ®åŃĹ": 2909,
      "æ¥ļ": 2910,
      "é¢Ĺ": 2911,
      "æĺ¯å¤ļå°ĳ": 2912,
      "æĵį": 2913,
      "å®¾": 2914,
      "æķ¢": 2915,
      "å¹¸ç¦ı": 2916,
      "æĺ¥å¤©": 2917,
      "éŀĭ": 2918,
      "æķ¦": 2919,
      "ç±»åŀĭçļĦ": 2920,
      "ç«ŀ": 2921,
      "éĻĨ": 2922,
      "æ®ĭ": 2923,
      "èĨ": 2924,
      "åħ±æľī": 2925,
      "æľĢä½İ": 2926,
      "æ·±åº¦åŃ¦ä¹ł": 2927,
      "è½½": 2928,
      "30": 2929,
      "æľīåĬ©": 2930,
      "ç½ª": 2931,
      "ç´«": 2932,
      "åŃ¤çĭ¬": 2933,
      "çº¸": 2934,
      "æ¦Ĥå¿µ": 2935,
      "æĹ©é¤Ĳ": 2936,
      "ä¹Ķ": 2937,
      "æĽ´å¥½çļĦ": 2938,
      "æ©ĻåŃĲ": 2939,
      "åĽ¾åĥı": 2940,
      "æŁĲä¸ª": 2941,
      "ç»Ļå®ļçļĦæĸĩæľ¬": 2942,
      "æ³ķåĽ½": 2943,
      "çĥ§": 2944,
      "åĴĮä¸Ģä¸ª": 2945,
      "ä¸Ģæ®µæĸĩåŃĹ": 2946,
      "åı£åĳ³": 2947,
      "éĢĹåı·": 2948,
      "202": 2949,
      "çļĦåĲĮä¹īè¯į": 2950,
      "æŁ³": 2951,
      "åĵºä¹³åĬ¨çī©": 2952,
      "æ¹¿": 2953,
      "åĪ°è¾¾": 2954,
      "æİĮ": 2955,
      "èĢ³": 2956,
      "åĲĥäºĨ": 2957,
      "å¯¹æĸĩæľ¬éĶĻè¯¯": 2958,
      "å¯¹æĸĩæľ¬éĶĻè¯¯è¿Ľè¡Į": 2959,
      "æĸ¹éĿ¢çļĦ": 2960,
      "æĭĤ": 2961,
      "æĺ¾ç¤º": 2962,
      "æĤł": 2963,
      "æ±¤": 2964,
      "çĹħæ¯Ĵ": 2965,
      "è¿¹": 2966,
      "æ¸©æļĸ": 2967,
      "ĠâĢľ": 2968,
      "å¥½çľĭ": 2969,
      "çĶ³": 2970,
      "ä¹ı": 2971,
      "çĩķ": 2972,
      "èĪ¹": 2973,
      "ä¸ŃåĽ½çļĦ": 2974,
      "é¼ł": 2975,
      "ç¤¾äº¤åªĴä½ĵ": 2976,
      "å¹ħ": 2977,
      "ä¿®æŃ£": 2978,
      "å°Ĩåħ¶ä¸ŃçļĦ": 2979,
      "åģļåĩº": 2980,
      "ä½¿åħ¶æĽ´åĬłæµģçķħ": 2981,
      "ç²ī": 2982,
      "äºĶä¸ª": 2983,
      "æĳĦæ°ıåº¦": 2984,
      "èĩªè¡Įè½¦": 2985,
      "ç¼©": 2986,
      "ä¼ĺç§Ģ": 2987,
      "è¦ģæ±Ĥåħ·æľī": 2988,
      "å¦Ī": 2989,
      "é£İéĻ©": 2990,
      "åī¯": 2991,
      "éĥ½æľī": 2992,
      "æĹı": 2993,
      "æºª": 2994,
      "ç»Ļä½ł": 2995,
      "éĩįçĤ¹": 2996,
      "èµ¢": 2997,
      "å¹¶ä¸į": 2998,
      "å¿§": 2999,
      "çĶŁæĪĲä¸Ģä¸ªæłĩé¢ĺ": 3000,
      "æĿ°": 3001,
      "è¯Ŀé¢ĺ": 3002,
      "åĲ¯": 3003,
      "äºĴèģĶç½ĳ": 3004,
      "è¦ģåİ»": 3005,
      "å¿ĥæĥħ": 3006,
      "åĢ¾": 3007,
      "æĮĩåĩº": 3008,
      "æľīåĬ©äºİ": 3009,
      "çīĪæľ¬": 3010,
      "åĨ¥æĥ³": 3011,
      "å°¤": 3012,
      "ä½łéľĢè¦ģ": 3013,
      "æł¹æį®ä»¥ä¸ĭæĸĩæľ¬": 3014,
      "åı¤è¯ĹçĶŁæĪĲ": 3015,
      "ä»Ĭå¤©çļĦ": 3016,
      "æģ©": 3017,
      "ä¸ºä½ł": 3018,
      "å°Ĩåľ¨": 3019,
      "æľīçĤ¹": 3020,
      "çĹĩçĬ¶": 3021,
      "èį¯çī©": 3022,
      "æŁ¥çľĭ": 3023,
      "å®Ļ": 3024,
      "äººçĶŁ": 3025,
      "åĮ»çĸĹä¿Ŀåģ¥": 3026,
      "æĪĳåİ»äºĨ": 3027,
      "åªļ": 3028,
      "è´£ä»»": 3029,
      "å²¸": 3030,
      "åıĳå¸ĥ": 3031,
      "é¸£": 3032,
      "æĪĳåĸľæ¬¢åĲĥ": 3033,
      "å»ºç«ĭ": 3034,
      "åıĹåĪ°": 3035,
      "çļĦè¯ĹæŃĮ": 3036,
      "å¥ı": 3037,
      "è¯´æĺİ": 3038,
      "åī©": 3039,
      "ä¸ºä¸Ģç¯ĩ": 3040,
      "åĲ¬èµ·æĿ¥": 3041,
      "è°±": 3042,
      "ç»ĦæĪĲ": 3043,
      "ç©ĨæľĹ": 3044,
      "è¯¢éĹ®": 3045,
      "çıłç©ĨæľĹ": 3046,
      "ç»ĨèĬĤ": 3047,
      "èĲ¥åħ»": 3048,
      "èĪĴéĢĤ": 3049,
      "æ¶¦": 3050,
      "è¾ŀ": 3051,
      "çıłç©ĨæľĹçİĽ": 3052,
      "è¿Ľè¡Įæĳĺè¦ģ": 3053,
      "æİĴåºı": 3054,
      "èĽĭç³ķ": 3055,
      "æ½ľ": 3056,
      "çıłç©ĨæľĹçİĽå³°": 3057,
      "éŁ©": 3058,
      "åĽ¾ä¹¦": 3059,
      "æľªæĿ¥çļĦ": 3060,
      "AIè¯Ńè¨Ģæ¨¡åŀĭ": 3061,
      "è¯Ńåı¥": 3062,
      "åĢŁ": 3063,
      "å®ĩå®Ļ": 3064,
      "è¯¸": 3065,
      "æł·çļĦ": 3066,
      "çĶµè¯Ŀ": 3067,
      "åł¡": 3068,
      "é¾Ħ": 3069,
      "å°¾": 3070,
      "çıį": 3071,
      "éľĩ": 3072,
      "èĥĮæĻ¯": 3073,
      "å¼ķèµ·": 3074,
      "åĪ¶å®ļ": 3075,
      "æľµ": 3076,
      "ç¢§": 3077,
      "ä¸ŃæĢ§": 3078,
      "ç¥ĸ": 3079,
      "çĴ": 3080,
      "è¡¥": 3081,
      "èĬ³": 3082,
      "å°Ĩä¼ļ": 3083,
      "çĪ±å¥½": 3084,
      "ç«¥": 3085,
      "çļĦåĲįåŃĹ": 3086,
      "æ³ķå¾ĭ": 3087,
      "éĢļé¡º": 3088,
      "èĭĹ": 3089,
      "æ»ĳ": 3090,
      "å¹³åĿĩ": 3091,
      "å¦Ļ": 3092,
      "ãĢĤâĢľ": 3093,
      "è¯·ä»İ": 3094,
      "èĩ³å°ĳ": 3095,
      "åĲī": 3096,
      "ä¸ĬéĿ¢": 3097,
      "éĿŀå¸¸æĦŁè°¢": 3098,
      "åĳ³éģĵ": 3099,
      "åºĶå¯¹": 3100,
      "æĽ´ç®Ģæ´ģ": 3101,
      "äººç±»çļĦ": 3102,
      "èį£": 3103,
      "èĵĿèī²": 3104,
      "åĵªç§į": 3105,
      "çĽ®çļĦåľ°": 3106,
      "ç³ĸæŀľ": 3107,
      "éĩįåĨĻä¸º": 3108,
      "åı£åı·": 3109,
      "èĢģå¸Ī": 3110,
      "æľºæŀĦ": 3111,
      "åĽłä¸ºæĪĳ": 3112,
      "åŁºæľ¬": 3113,
      "åľ¨åħ¬åĽŃéĩĮ": 3114,
      "äºĨå¾Īå¤ļ": 3115,
      "ç¾İåħĥ": 3116,
      "å¡ŀ": 3117,
      "æ²Ļæ»©": 3118,
      "æ¡ĥ": 3119,
      "éª¨": 3120,
      "ä»İèĢĮ": 3121,
      "éĢĢ": 3122,
      "åĩºéĹ¨": 3123,
      "éĩįè¿°": 3124,
      "ä½Ľ": 3125,
      "åı¯èĥ½æĺ¯": 3126,
      "åĪĨäº«": 3127,
      "å¼ºè°ĥ": 3128,
      "äººåĳĺ": 3129,
      "æīĵç®Ĺ": 3130,
      "å¤ļä¸ª": 3131,
      "æĦŁåĪ°éĿŀå¸¸": 3132,
      "ç»ķ": 3133,
      "èĦī": 3134,
      "åĩıè½»": 3135,
      "çļĦäºĭæĥħ": 3136,
      "èįīèİĵ": 3137,
      "é£İåĲ¹": 3138,
      "æĶ¹è¿Ľ": 3139,
      "ç£": 3140,
      "åĲĪçĲĨ": 3141,
      "åİŁå§ĭæĸĩæľ¬": 3142,
      "èĩ£": 3143,
      "æıĲåıĸä¸Ģä¸ĭ": 3144,
      "åĲİçļĦåı¥åŃĲ": 3145,
      "ä»Ĭå¹´": 3146,
      "å¼Ģå¿ĥ": 3147,
      "å¼Ł": 3148,
      "çĽĺ": 3149,
      "å®ĭ": 3150,
      "æĽ´æĶ¹": 3151,
      "æĿ¨": 3152,
      "çĻĮ": 3153,
      "çĶµåŃĲéĤ®ä»¶": 3154,
      "æłĩçŃ¾": 3155,
      "çĭĹçļĦ": 3156,
      "çĶŁæ´»æĸ¹å¼ı": 3157,
      "çļĦæĸ¹å¼ı": 3158,
      "å±ĭ": 3159,
      "éĽ·": 3160,
      "èĭ±åĽ½": 3161,
      "è¶³å¤Ł": 3162,
      "æ¶īåıĬ": 3163,
      "åİŁæĸĩ": 3164,
      "é½Ĳ": 3165,
      "æĺ¯ä¸Ģä½į": 3166,
      "æĭľ": 3167,
      "åĳ½åĲį": 3168,
      "åı¹": 3169,
      "è§Ĵèī²": 3170,
      "éķ¿çļĦ": 3171,
      "é¬": 3172,
      "åĨĻçļĦ": 3173,
      "âĢĿ<|": 3174,
      "ä¿ĿæĬ¤çİ¯å¢ĥ": 3175,
      "æĬķèµĦ": 3176,
      "åĪĨéĴŁ": 3177,
      "ç¾İå¥½": 3178,
      "æĪĳä¸įçŁ¥éģĵ": 3179,
      "å¿ł": 3180,
      "çİ°åľ¨è¯·ä½ł": 3181,
      "åĽŀçŃĶéĹ®é¢ĺ": 3182,
      "åĳĺå·¥": 3183,
      "ç®Ģè¦ģ": 3184,
      "ä¸¤ä¸ªåı¥åŃĲæĺ¯åĲ¦": 3185,
      "åĲ´": 3186,
      "ä¸įçŁ¥éģĵ": 3187,
      "èĬ±åĽŃ": 3188,
      "ä¸ĭèģĶ": 3189,
      "ç¨³": 3190,
      "ç¡Ģ": 3191,
      "ä¸ĭéĿ¢è¿Ļä¸ªåı¥åŃĲ": 3192,
      "æıĲä¾ĽçļĦ": 3193,
      "éĵ¾": 3194,
      "ä¸¾è¡Į": 3195,
      "ä¸ºä¸Ģä¸ª": 3196,
      "æĿŁ": 3197,
      "æĭĽ": 3198,
      "æĪĳåĴĮ": 3199,
      "çľĭçľĭ": 3200,
      "è¹": 3201,
      "çĲ´": 3202,
      "æľĢæĸ°çļĦ": 3203,
      "éĩĮçļĦ": 3204,
      "å¹¶æ²¡æľī": 3205,
      "å¤ķ": 3206,
      "çĽ¸åºĶ": 3207,
      "åŁºç¡Ģ": 3208,
      "éħ¸": 3209,
      "ä¹Łå¾Ī": 3210,
      "ç³»åĪĹ": 3211,
      "ä¸Ĭåįĩ": 3212,
      "çĽ¸åıį": 3213,
      "åİŁå§ĭåı¥åŃĲ": 3214,
      "åĲĪä½ľ": 3215,
      "è¯»ä¹¦": 3216,
      "åķĨåºĹ": 3217,
      "åĢĳ": 3218,
      "æ£®æŀĹ": 3219,
      "âĢĶâĢĶ": 3220,
      "çµ": 3221,
      "åĽ¢éĺŁ": 3222,
      "çĭ¬çī¹": 3223,
      "é»ĺ": 3224,
      "äººæ°ĳ": 3225,
      "æĺ¯ä¸ª": 3226,
      "æĬĹ": 3227,
      "çī©è´¨": 3228,
      "å®ŀéĻħ": 3229,
      "ä¿ĥè¿Ľ": 3230,
      "è¿Ļé¡¹": 3231,
      "èļ": 3232,
      "ç®±": 3233,
      "éĽĦ": 3234,
      "å§Ķ": 3235,
      "è°¢è°¢ä½łçļĦ": 3236,
      "æ¢¦æĥ³": 3237,
      "æĮ¥": 3238,
      "äºĶè¨Ģ": 3239,
      "æĥł": 3240,
      "åĬ¨ä½ľ": 3241,
      "ä¼¯": 3242,
      "çļĦéŁ³ä¹Ĳ": 3243,
      "æĪĳè®¤ä¸º": 3244,
      "å¹ķ": 3245,
      "ç®ĢåĮĸ": 3246,
      "å¸®æĪĳæĥ³": 3247,
      "ä¸ĢäºĽåħ³äºİ": 3248,
      "å«": 3249,
      "åĽŀçŃĶè¿Ļä¸ªéĹ®é¢ĺ": 3250,
      "å°ıçĭĹ": 3251,
      "éĩĬä¹ī": 3252,
      "éĻĲåĪ¶": 3253,
      "çĪ¬": 3254,
      "æīĵå¼Ģ": 3255,
      "åĨ²": 3256,
      "ä¸»è¦ģè§ĤçĤ¹": 3257,
      "æµ·è¾¹": 3258,
      "å®Įåħ¨": 3259,
      "æľīæ²¡æľī": 3260,
      "éĿ¢ä¸´": 3261,
      "æ·¡": 3262,
      "ç§įç±»": 3263,
      "é¸¡èĽĭ": 3264,
      "å¥Ĺ": 3265,
      "æĺİåªļ": 3266,
      "çĽ´æİ¥": 3267,
      "èĤ¥": 3268,
      "æ·ĩ": 3269,
      "èµŀ": 3270,
      "éļĶ": 3271,
      "éĥ½ä¼ļ": 3272,
      "å£®": 3273,
      "çľĭèµ·æĿ¥": 3274,
      "çĨĬçĮ«": 3275,
      "åĸľå¥½": 3276,
      "ä¸Ģåľº": 3277,
      "è¯ļ": 3278,
      "çłĶç©¶è¡¨æĺİ": 3279,
      "äº¿": 3280,
      "æĿ¥è¯´": 3281,
      "ç¾İå¥½çļĦ": 3282,
      "çĤº": 3283,
      "åŃĻ": 3284,
      "åĬ£": 3285,
      "å¢ŀå¼º": 3286,
      "ç¿ł": 3287,
      "æı¡": 3288,
      "12": 3289,
      "æī¬": 3290,
      "æĢĿæĥ³": 3291,
      "äº¤æµģ": 3292,
      "çļĦå¤©æ°ĶæĥħåĨµ": 3293,
      "è´Ŀ": 3294,
      "ä¼¦æķ¦": 3295,
      "éĩİé¤Ĳ": 3296,
      "çĺ": 3297,
      "åįļçī©": 3298,
      "18": 3299,
      "åĽ¾ä¹¦é¦Ĩ": 3300,
      "å¼Ģå¤´": 3301,
      "æĪĲè¯ŃéĩĬä¹ī": 3302,
      "æ¦": 3303,
      "åİļ": 3304,
      "ä»ĸå¾Ī": 3305,
      "åĨ°æ·ĩ": 3306,
      "èĲ§": 3307,
      "æĦŁåħ´è¶£": 3308,
      "åº¦åģĩ": 3309,
      "ä¼Ĭ": 3310,
      "çŀ": 3311,
      "ä¸¹": 3312,
      "æĳĩ": 3313,
      "åıĤä¸İ": 3314,
      "ä½ĵèĤ²": 3315,
      "çļĦå¤§": 3316,
      "åĨ°æ·ĩæ·ĭ": 3317,
      "è¯·æĤ¨": 3318,
      "æ¡Į": 3319,
      "åĶ¯": 3320,
      "å®¶å±ħ": 3321,
      "å·¥ç¨ĭ": 3322,
      "å¯Ħ": 3323,
      "çĤİçĥŃ": 3324,
      "ä¸įçĶ¨": 3325,
      "æŃ£å¼ı": 3326,
      "ä¸Ģä¸ªäºº": 3327,
      "è¿Ļç¯ĩæĸĩç«łä¸ŃçļĦ": 3328,
      "ä¸ĸçķĮä¸ĬæľĢ": 3329,
      "çļĦè¯Ńä¹ī": 3330,
      "æĪĳå·²ç»ı": 3331,
      "éĢı": 3332,
      "éĿł": 3333,
      "å¹³è¡¡": 3334,
      "èĦļ": 3335,
      "æĺ¯åĵª": 3336,
      "æĹ¢": 3337,
      "åı¯æĮģç»Ńåıĳå±ķ": 3338,
      "æĪĲç»©": 3339,
      "æ»¡è¶³": 3340,
      "æĸĩç«łåĨħå®¹": 3341,
      "è¯Ĺäºº": 3342,
      "çļĦåĲ«ä¹īæĺ¯ä»Ģä¹Ī": 3343,
      "éĩįå¤į": 3344,
      "æŀ«": 3345,
      "æİ¨åĩº": 3346,
      "ä¸ŃæıĲåıĸåĩº": 3347,
      "çĨŁ": 3348,
      "æĿ¥èĩª": 3349,
      "ç»ĻæĪĳæİ¨èįĲ": 3350,
      "éº»": 3351,
      "ä¿Ĺ": 3352,
      "å¤§å®¶": 3353,
      "åı¯ä»¥éĢļè¿ĩ": 3354,
      "æĴ°": 3355,
      "åħ¬åħ±": 3356,
      "çĶµå½±éĻ¢": 3357,
      "ä¸§": 3358,
      "ãĢĭï¼Į": 3359,
      "çİ¯å¢ĥæ±¡æŁĵ": 3360,
      "åĲĪéĢĤçļĦ": 3361,
      "è¾¾åĪ°": 3362,
      "åħļ": 3363,
      "æĢķ": 3364,
      "æ½®": 3365,
      "æķĪæŀľ": 3366,
      "è¿Ļæ®µè¯Ŀ": 3367,
      "è®©ä½ł": 3368,
      "åĪ¶éĢł": 3369,
      "åĵģç§į": 3370,
      "ï¼īãĢĤ": 3371,
      "éŃĶ": 3372,
      "æ¼Ķè®²": 3373,
      "èĩªæĪĳ": 3374,
      "è§ĦåĪĻ": 3375,
      "æŃĮè¯į": 3376,
      "ä¸įä»ħ": 3377,
      "ç¦ģ": 3378,
      "åľ¨åĵªéĩĮ": 3379,
      "äººå·¥æĻºèĥ½çļĦåºĶçĶ¨": 3380,
      "åĨĻä¸Ģé¦ĸ": 3381,
      "è¿Ļæ®µæĸĩæľ¬": 3382,
      "åįĸ": 3383,
      "æĺ¯æĪĳ": 3384,
      "è¢«åĬ¨è¯ŃæĢģ": 3385,
      "çĩĥ": 3386,
      "å®¶äºº": 3387,
      "å¤ļç§į": 3388,
      "è¿Ľè¡ĮåĪĨç±»": 3389,
      "éļıçĿĢ": 3390,
      "æī§è¡Į": 3391,
      "æ³Ĭ": 3392,
      "15": 3393,
      "å¯¹ä»¥ä¸ĭåı¥åŃĲ": 3394,
      "è®¨è®ºäºĨ": 3395,
      "éľĢè¦ģæĪĳ": 3396,
      "çº½çº¦å¸Ĥ": 3397,
      "éĵ¶è¡Į": 3398,
      "éĢ»": 3399,
      "æıĲéĨĴ": 3400,
      "æª": 3401,
      "æ³ī": 3402,
      "åŀĥåľ¾åĪĨç±»": 3403,
      "æĹ¥å¸¸": 3404,
      "å¤ļäºĳ": 3405,
      "åĩºåİ»": 3406,
      "è¯·ä»İæĸĩç«łä¸ŃæıĲåıĸåĩº": 3407,
      "ç»Ļå®ļæĸĩæľ¬": 3408,
      "è¯Ńæ°Ķ": 3409,
      "åĴ¨": 3410,
      "æī¹": 3411,
      "åŁ¹": 3412,
      "æİ¥ä¸ĭæĿ¥": 3413,
      "å®īæİĴ": 3414,
      "æĭį": 3415,
      "éĹª": 3416,
      "æł¹æį®æīĢ": 3417,
      "å®£å¸ĥ": 3418,
      "åĨ³çŃĸ": 3419,
      "å¿ħè¦ģ": 3420,
      "çļĨ": 3421,
      "è°¢è°¢ä½ł": 3422,
      "åı¯ä»¥åľ¨": 3423,
      "éĥģ": 3424,
      "çģ«è½¦": 3425,
      "çľŁæĺ¯": 3426,
      "æĻĴ": 3427,
      "æĬ¼": 3428,
      "ä»ĬæĻļ": 3429,
      "ç§ĭå¤©çļĦ": 3430,
      "æĺ¯è°ģ": 3431,
      "ç¾İæĻ¯": 3432,
      "éķľ": 3433,
      "åĬĽåĴĮ": 3434,
      "æĳĦåħ¥": 3435,
      "æįŁ": 3436,
      "ä¸Ģä»¶": 3437,
      "ä»ĸåĸľæ¬¢": 3438,
      "äºĨä¸ĢäºĽ": 3439,
      "èĪŁ": 3440,
      "åºĵ": 3441,
      "åľ¨çº¿": 3442,
      "æĻļé¤Ĳ": 3443,
      "æī©": 3444,
      "è¿ĽæŃ¥": 3445,
      "è½¬åĮĸ": 3446,
      "ä½ľä¸ºä¸Ģä¸ª": 3447,
      "æĺİç¡®": 3448,
      "å¹´é¾Ħ": 3449,
      "åį³åı¯": 3450,
      "é¢Ħéĺ²": 3451,
      "èĦı": 3452,
      "åĬĽçļĦ": 3453,
      "æĺ¯ä¸Ģéĥ¨": 3454,
      "èĩªåĬ¨é©¾é©¶": 3455,
      "è½®": 3456,
      "å©ļ": 3457,
      "çŃīé¢ĨåŁŁ": 3458,
      "è¡¨æł¼": 3459,
      "åĽŀæĶ¶": 3460,
      "ä¸Ģé¡¹": 3461,
      "è§£åĨ³æĸ¹æ¡Ī": 3462,
      "ä»¥ä¸Ĭ": 3463,
      "å®ĥæĺ¯": 3464,
      "åŁİå¸ĤçļĦ": 3465,
      "æµ·æĭĶ": 3466,
      "å¯ĴåĨ·": 3467,
      "ä¾Ĩ": 3468,
      "æŃ¤å¤ĸ": 3469,
      "ç³Ł": 3470,
      "è°ľ": 3471,
      "å¥³åŃ©": 3472,
      "ç²¾ç¥ŀ": 3473,
      "è¿ª": 3474,
      "è¿Ļæ®µæĸĩåŃĹ": 3475,
      "æł¸å¿ĥ": 3476,
      "éĢ»è¾ĳ": 3477,
      "ç¾Ĭ": 3478,
      "æµªæ¼«": 3479,
      "æ³ª": 3480,
      "çĸı": 3481,
      "çĸ«èĭĹ": 3482,
      "è¯ķè¯ķ": 3483,
      "åħĥç´ł": 3484,
      "ç¬¬ä¸ī": 3485,
      "ç¥ŀç»ı": 3486,
      "çİ°å®ŀ": 3487,
      "84": 3488,
      "æľīæīĢ": 3489,
      "é¥¼": 3490,
      "æķ´ä¸ª": 3491,
      "å¸ģ": 3492,
      "åĬĽéĩı": 3493,
      "çĪ½": 3494,
      "æĲŃ": 3495,
      "è°ĥæŁ¥": 3496,
      "ä¸ºä¸Ģåı¥è¯Ŀ": 3497,
      "èĬĤçº¦": 3498,
      "åĴ¨è¯¢": 3499,
      "åĴª": 3500,
      "ä¸ĬçıŃ": 3501,
      "è¯·å¸®æĪĳ": 3502,
      "èĦĤ": 3503,
      "åįļçī©é¦Ĩ": 3504,
      "èĢħçļĦ": 3505,
      "èľľ": 3506,
      "æ¶ĪæŀģçŃĶæ¡Ī": 3507,
      "å°į": 3508,
      "çĶŁæĪĲä¸Ģä¸ªä¸İ": 3509,
      "åİ»å¹´": 3510,
      "å¤ļæł·": 3511,
      "æł¹æį®æıĲä¾ĽçļĦ": 3512,
      "é¡¶": 3513,
      "è§£çŃĶ": 3514,
      "åĪ¤æĸŃä¸ĭéĿ¢": 3515,
      "å£°éŁ³": 3516,
      "é²¸": 3517,
      "çŃīæĸ¹éĿ¢": 3518,
      "çĪĨ": 3519,
      "åİ»çľĭçĶµå½±": 3520,
      "è§Ĩè§ī": 3521,
      "åĨįçĶŁ": 3522,
      "ä½łèĥ½å¸®æĪĳ": 3523,
      "æĪ´": 3524,
      "åķĨä¸ļ": 3525,
      "åłª": 3526,
      "çĵ¶": 3527,
      "ç¥ŀç§ĺ": 3528,
      "éĺ³åħīæĺİåªļ": 3529,
      "å¾Īæ£Ĵ": 3530,
      "çĽ¸åĲĮçļĦè¯Ńä¹ī": 3531,
      "äºĮåįģ": 3532,
      "ç¼ºä¹ı": 3533,
      "å¹¶ç»Ļåĩº": 3534,
      "æħ§": 3535,
      "çľŁå¥½": 3536,
      "è´¡": 3537,
      "åĩ¡": 3538,
      "å¢¨": 3539,
      "åĿĢ": 3540,
      "æĺ¯åħ³äºİ": 3541,
      "å¤§çº¦": 3542,
      "æ¬§æ´²": 3543,
      "ãĢĭãĢĤ": 3544,
      "ç©¿çĿĢ": 3545,
      "è§Ī": 3546,
      "è¿Ľä¸ĢæŃ¥": 3547,
      "å¸®ä½ł": 3548,
      "è¾£": 3549,
      "å½¢æĪĲ": 3550,
      "çĭ¬ç«ĭ": 3551,
      "è¯·æıĲåıĸåĩº": 3552,
      "èģļä¼ļ": 3553,
      "åĲĪå¹¶æĪĲä¸Ģä¸ª": 3554,
      "ä½łæľīä»Ģä¹Ī": 3555,
      "åĪĨç±»ä¸º": 3556,
      "æī¼": 3557,
      "çĮ«åĴª": 3558,
      "é¥®æĸĻ": 3559,
      "å¿½": 3560,
      "åħ¬éĩĮ": 3561,
      "ç©·": 3562,
      "ä¸¤ä¸ªåı¥åŃĲæĺ¯åĲ¦è¡¨è¾¾äºĨ": 3563,
      "çĬ¶æĢģ": 3564,
      "ä¸ĭéĿ¢çļĦæĸĩæľ¬": 3565,
      "çĶļ": 3566,
      "çĽŁ": 3567,
      "çº¢èī²çļĦ": 3568,
      "åĪ¤æĸŃä¸ĭéĿ¢ä¸¤ä¸ªåı¥åŃĲæĺ¯åĲ¦è¡¨è¾¾äºĨ": 3569,
      "åĪ¤æĸŃä¸ĭéĿ¢ä¸¤ä¸ªåı¥åŃĲæĺ¯åĲ¦è¡¨è¾¾äºĨçĽ¸åĲĮçļĦè¯Ńä¹ī": 3570,
      "çļĦåħ·ä½ĵ": 3571,
      "ä¸įå¤ª": 3572,
      "åĲ¾": 3573,
      "åĪļåĪļ": 3574,
      "ï¼ĮâĢľ": 3575,
      "éĴ¢": 3576,
      "çļĦèıľ": 3577,
      "æĪĳæİ¨èįĲ": 3578,
      "è¡¨æ¼Ķ": 3579,
      "å¥Ķ": 3580,
      "éħ±": 3581,
      "èº«ä½ĵåģ¥åº·": 3582,
      "æľīä¸Ģ": 3583,
      "æ¢ģ": 3584,
      "æĻĭ": 3585,
      "è¿Ļä¸ªè¯įè¯Ńæĺ¯ä»Ģä¹ĪæĦıæĢĿ": 3586,
      "å®½": 3587,
      "æĳĺåıĸ": 3588,
      "å¦ĤæŃ¤": 3589,
      "ç¼ĸåĨĻä¸Ģä¸ª": 3590,
      "å°º": 3591,
      "åĮ»éĻ¢": 3592,
      "ç§ĭé£İ": 3593,
      "ç¤ºä¾ĭ": 3594,
      "è¯º": 3595,
      "æĪĳå¾Īåĸľæ¬¢": 3596,
      "æľ±": 3597,
      "æĹĭ": 3598,
      "æķ°æį®éĽĨ": 3599,
      "æľĢå¥½": 3600,
      "æĪĳä¼ļå°½åĬĽ": 3601,
      "æľĥ": 3602,
      "å¤ıæĹ¥": 3603,
      "ä¼°": 3604,
      "éĺµ": 3605,
      "ä½łä¼ļ": 3606,
      "èį¡": 3607,
      "éĵħ": 3608,
      "æ²¡æľīæıĲä¾Ľ": 3609,
      "èµ¢å¾Ĺ": 3610,
      "____": 3611,
      "çĶ²": 3612,
      "è¯¾ç¨ĭ": 3613,
      "çļĦé¦ĸ": 3614,
      "è¿Ļä¸¤ä¸ª": 3615,
      "åŁĥ": 3616,
      "åĽłä¸ºå¤©æ°Ķ": 3617,
      "ä¸²": 3618,
      "å°ıæĺİæľī": 3619,
      "åĬ©æīĭ": 3620,
      "çĥŃéĹ¨": 3621,
      "èĸĦ": 3622,
      "è®²è¿°äºĨ": 3623,
      "è®¿éĹ®": 3624,
      "äºĭçī©": 3625,
      "æīĺ": 3626,
      "æ»¡æĦı": 3627,
      "åį³ä½¿": 3628,
      "çļĦä¸īä¸ª": 3629,
      "æĽ´åĩĨç¡®": 3630,
      "åĽº": 3631,
      "èįĴ": 3632,
      "çģ¾å®³": 3633,
      "åĭ¤": 3634,
      "æ¯ĶèµĽä¸Ń": 3635,
      "é²ģ": 3636,
      "ä¸Ģå¹´": 3637,
      "èµĭ": 3638,
      "ä¸¤åı¥è¯Ŀ": 3639,
      "åıĺæĪĲ": 3640,
      "é¢Ħè®¢": 3641,
      "æī¼è¦ģ": 3642,
      "çļĦå°ıè¯´": 3643,
      "æĵįä½ľ": 3644,
      "æ±ģ": 3645,
      "å¸Ń": 3646,
      "å¾Īæľī": 3647,
      "å°¤åħ¶": 3648,
      "æĮĩä»¤": 3649,
      "èĳ¡èĲ": 3650,
      "èĳ¡èĲĦ": 3651,
      "ä¸ĢèĪ¬": 3652,
      "çĶĺ": 3653,
      "±ä¹Ĳ": 3654,
      "è¯ĨåĪ«åĩº": 3655,
      "æľŁéĹ´": 3656,
      "æıĲä¾Ľä¸ĢäºĽ": 3657,
      "è¿ĩäºĨ": 3658,
      "ç¶": 3659,
      "è¯·çĶ¨": 3660,
      "éļľ": 3661,
      "ä½łæĥ³": 3662,
      "ä½¿åħ¶æĽ´ç®Ģæ´ģ": 3663,
      "çļĦæııè¿°": 3664,
      "åºĦ": 3665,
      "éĢ¢": 3666,
      "è®°å½ķ": 3667,
      "ä¼ĺçĤ¹": 3668,
      "å¤ľæĻļ": 3669,
      "å¥¥è¿Ĳ": 3670,
      "æ²Ł": 3671,
      "çĭĤ": 3672,
      "ä¸ĭéĿ¢è¿Ļåı¥è¯Ŀ": 3673,
      "åī§æĥħ": 3674,
      "ä¸ĬèģĶ": 3675,
      "è¡¨è¿°": 3676,
      "æģ¶åĬ£": 3677,
      "ä½¿åħ¶æĽ´åħ·": 3678,
      "ç®Ģæĺİæī¼è¦ģ": 3679,
      "å¼¹": 3680,
      "åĨĴéĻ©": 3681,
      "å¤§è±¡": 3682,
      "èĻ«": 3683,
      "çļĦåİŁåĽł": 3684,
      "éģĩåĪ°": 3685,
      "ä¸ĭåĳ¨": 3686,
      "æıĲåįĩ": 3687,
      "æľĢå¤§": 3688,
      "æĪĸçŁŃè¯Ń": 3689,
      "çĽ¸ä¿¡": 3690,
      "çĮľ": 3691,
      "éģ¥": 3692,
      "æļ®": 3693,
      "ä¼ŀ": 3694,
      "æĸ°é²ľ": 3695,
      "å·¥ä¸ļ": 3696,
      "è¿ħ": 3697,
      "æİ¥åıĹ": 3698,
      "åįİçĽĽ": 3699,
      "åľ¨ä¸ŃåĽ½": 3700,
      "åĳ½åĲįå®ŀä½ĵè¯ĨåĪ«": 3701,
      "è¿ĳä¹īè¯į": 3702,
      "èİ±": 3703,
      "çĳŀ": 3704,
      "åľ¨ç»Ļå®ļçļĦ": 3705,
      "æĬ¼éŁµ": 3706,
      "é©¬æĭī": 3707,
      "æĿİæĺİ": 3708,
      "çļĦé£İéĻ©": 3709,
      "çļĦæĥħåĨµ": 3710,
      "æĽ´ç®Ģåįķ": 3711,
      "æĶ¹åĨĻä»¥ä¸ĭåı¥åŃĲ": 3712,
      "è¯·çĶ¨ä¸Ģåı¥è¯Ŀ": 3713,
      "è¯·å°Ĩ": 3714,
      "ä»¥ä¾¿æĪĳ": 3715,
      "æĸ°äº§åĵģ": 3716,
      "èµµ": 3717,
      "äºĨä¸Ģåıª": 3718,
      "çĶŁæĢģç³»ç»Ł": 3719,
      "åĸĿåĴĸåķ¡": 3720,
      "èĢĲ": 3721,
      "åįİçĽĽé¡¿": 3722,
      "æİĪ": 3723,
      "æľīè®¸å¤ļ": 3724,
      "ä¸ŃæľĢ": 3725,
      "åĬŀåħ¬": 3726,
      "ä¸Ģæ¬¾": 3727,
      "éĥİ": 3728,
      "èĥ¡": 3729,
      "è·¯ä¸Ĭ": 3730,
      "æĹ¶ä»£": 3731,
      "çļĦåİĨåı²": 3732,
      "ä¸įå¾Ĺ": 3733,
      "å®£ä¼ł": 3734,
      "ä¸įåıĺ": 3735,
      "å¸®åĬ©æĤ¨": 3736,
      "æĪĳåĸľæ¬¢åľ¨": 3737,
      "è¾ħ": 3738,
      "å°±åĥı": 3739,
      "äººåĲįåĴĮ": 3740,
      "æĸ¼": 3741,
      "é«ĺåº¦": 3742,
      "çĿĽ": 3743,
      "25": 3744,
      "ç¨į": 3745,
      "å¸¸å¸¸": 3746,
      "åıĸæ¶ĪäºĨ": 3747,
      "èĢį": 3748,
      "å®¢æ°Ķ": 3749,
      "æĻĵ": 3750,
      "æĪĳä»¬åºĶè¯¥": 3751,
      "çĥ¦": 3752,
      "æĪĳçľĭ": 3753,
      "éļıæľº": 3754,
      "çļĦå½¢å¼ı": 3755,
      "åĸľåī§": 3756,
      "è¿Ļä¸Ģ": 3757,
      "ä¿ĿçķĻ": 3758,
      "ç¦»å¼Ģ": 3759,
      "é¢Ħç®Ĺ": 3760,
      "å¤ļçļĦ": 3761,
      "çĶ¨çļĦ": 3762,
      "éħĴåºĹ": 3763,
      "ä¹ĭåĲİ": 3764,
      "é£ŀæľº": 3765,
      "æĬ½åıĸåĩºæĸĩä¸ŃæīĢæľīçļĦå®ŀä½ĵä¸įåŃĺåľ¨å®ŀä½ĵ": 3766,
      "ç³Łç³ķ": 3767,
      "ç§¦": 3768,
      "çĭ®": 3769,
      "æľīä»»ä½ķ": 3770,
      "ç»ıè¿ĩ": 3771,
      "è¿Ļä¸ªé¡¹çĽ®": 3772,
      "åĴĮæĺĵäºİçĲĨè§£": 3773,
      "æŁĲäºĽ": 3774,
      "ä¸»è¯Ń": 3775,
      "é«ĺçļĦ": 3776,
      "æľīæĦıä¹ī": 3777,
      "åĨĻä¸Ģç¯ĩ": 3778,
      "çĽ¸åħ³ä¿¡æģ¯": 3779,
      "ä¸ªåįķè¯į": 3780,
      "åĮĸçļĦ": 3781,
      "èĦ¸": 3782,
      "åĬłä¸Ĭ": 3783,
      "æ°Ķä½ĵ": 3784,
      "åį°åº¦": 3785,
      "è¿Ļåıª": 3786,
      "æł¹æį®ç»Ļå®ļçļĦåı¥åŃĲ": 3787,
      "äºĨè®¸å¤ļ": 3788,
      "çĶµå½±è¯Ħè®º": 3789,
      "åħ´å¥ĭ": 3790,
      "å½¼": 3791,
      "åıĹæ¬¢è¿İçļĦ": 3792,
      "é¢Ħè®¡": 3793,
      "ç¤¼çī©": 3794,
      "ä½ľä¸ļ": 3795,
      "ç¾İçļĦ": 3796,
      "é¹ħ": 3797,
      "åĽłä¸ºä»ĸ": 3798,
      "åı¥åŃĲä¸Ń": 3799,
      "å¹¶åľ¨": 3800,
      "éĻµ": 3801,
      "ä¸įèµ·": 3802,
      "å¯¹æĸĩæľ¬éĶĻè¯¯è¿Ľè¡Įä¿®æĶ¹": 3803,
      "éĺ¶": 3804,
      "åĲŁ": 3805,
      "åŃĲçļĦ": 3806,
      "éĿ¢ç§¯": 3807,
      "å¹´æĿ¥": 3808,
      "åĲ¬éŁ³ä¹Ĳ": 3809,
      "åı£æĦŁ": 3810,
      "èĲ¥éĶĢ": 3811,
      "èĦ±": 3812,
      "å¥½äºĨ": 3813,
      "æİ¨å¹¿": 3814,
      "éĵħç¬Ķ": 3815,
      "æ¸¯": 3816,
      "åĲ«æľī": 3817,
      "åı¯è¯»": 3818,
      "åŃ¦ä¹łç¼ĸç¨ĭ": 3819,
      "æķ¬": 3820,
      "æķı": 3821,
      "èĢĢ": 3822,
      "å®ĥæĽ´åĬł": 3823,
      "ç»ĺ": 3824,
      "æĻºèĥ½å®¶å±ħ": 3825,
      "çİĽä¸½": 3826,
      "æĪĳä¸įèĥ½": 3827,
      "åįł": 3828,
      "èĲ½åı¶": 3829,
      "èĪªçıŃ": 3830,
      "æµªè´¹": 3831,
      "å¸¸è§ģçļĦ": 3832,
      "èĥ½ä¸įèĥ½": 3833,
      "è¯¥æĸĩæľ¬": 3834,
      "ä¸ºä»¥ä¸ĭåı¥åŃĲ": 3835,
      "å§ĵåĲį": 3836,
      "ä¸įåĸľæ¬¢": 3837,
      "ä¸Ģåħ±æľī": 3838,
      "æĦīæĤ¦": 3839,
      "å¾Ĵ": 3840,
      "æĥħå¢ĥ": 3841,
      "èĭį": 3842,
      "äºĪ": 3843,
      "ä¼Ł": 3844,
      "çī©çĲĨ": 3845,
      "æ··": 3846,
      "é³": 3847,
      "ĠæĪĳ": 3848,
      "æĺ¯ä¸ĢåĲį": 3849,
      "çĿ¡è§ī": 3850,
      "æĺ¯çĶ±": 3851,
      "æ¨ª": 3852,
      "å¹³åı°": 3853,
      "çŃĸçķ¥": 3854,
      "éļ¾ä»¥": 3855,
      "éĢĬ": 3856,
      "æĤ¨çļĦéĹ®é¢ĺ": 3857,
      "çľ¼çĿĽ": 3858,
      "çĶŁæĪĲä¸Ģä¸ªåĮħåĲ«": 3859,
      "æ¶Īè´¹": 3860,
      "æ°Ķè±¡": 3861,
      "è¿Ľåħ¥": 3862,
      "æĹ¶åħī": 3863,
      "çº¦ä¸º": 3864,
      "æĢİä¹Īè¯´": 3865,
      "å°Ĩä¸ĭéĿ¢åı¥åŃĲ": 3866,
      "åŃĹç¬¦": 3867,
      "ä½łåĸľæ¬¢": 3868,
      "çİ©èĢį": 3869,
      "å°Ĩä»¥ä¸ĭåı¥åŃĲä¸ŃçļĦ": 3870,
      "è¿Ļåľº": 3871,
      "çĶ¨æĿ¥": 3872,
      "ä¼ĳæģ¯": 3873,
      "èĥģ": 3874,
      "åĮĹäº¬çļĦå¤©æ°Ķ": 3875,
      "|>âĢľ": 3876,
      "ä¸Ģå¼ł": 3877,
      "åĮĹäº¬å¸Ĥ": 3878,
      "é«ĺæķĪ": 3879,
      "ä½ľè¯Ĺ": 3880,
      "200": 3881,
      "äººå¿ĥ": 3882,
      "åı¯åĨįçĶŁ": 3883,
      "èı²": 3884,
      "æĸĩç«łä¸ŃæıĲåıĸåĩº": 3885,
      "æģĴ": 3886,
      "ä¸ŃçļĦåºĶçĶ¨": 3887,
      "æ±īåł¡": 3888,
      "å±±èĦī": 3889,
      "å¦ĩ": 3890,
      "ä¹Į": 3891,
      "äººåľ¨": 3892,
      "è¿ŀæİ¥": 3893,
      "èĤº": 3894,
      "ç»ĦåĲĪ": 3895,
      "æĪĺäºī": 3896,
      "éļĲç§ģ": 3897,
      "å¥¥è¿Ĳä¼ļ": 3898,
      "ç¾İåĽ½æĢ»ç»Ł": 3899,
      "èĤ´": 3900,
      "èĪį": 3901,
      "çļĦäººåĲį": 3902,
      "ç»ĻæĤ¨": 3903,
      "å¾ª": 3904,
      "éĹ®é¢ĺçļĦ": 3905,
      "éĢĥ": 3906,
      "çł´åĿı": 3907,
      "é¹¿": 3908,
      "ç©ºéĹ´": 3909,
      "äººå·¥æĻºèĥ½åľ¨åĮ»çĸĹé¢ĨåŁŁ": 3910,
      "åı¦å¤ĸ": 3911,
      "æĸĩæľ¬è¿Ľè¡ĮçºłéĶĻ": 3912,
      "å¢Ļ": 3913,
      "èİ·å¾ĹäºĨ": 3914,
      "Ġå½ĵçĦ¶": 3915,
      "èī¯å¥½çļĦ": 3916,
      "å°Ĩç»Ļå®ļçļĦ": 3917,
      "æĳ©": 3918,
      "èĿ¶": 3919,
      "æĺ¯ä¸ŃåĽ½": 3920,
      "çģŃ": 3921,
      "ä¸ĸçºª": 3922,
      "æĤ²ä¼¤": 3923,
      "æĪ·å¤ĸæ´»åĬ¨": 3924,
      "å¯¹ç»Ļå®ļçļĦ": 3925,
      "æĽ´åħ·ä½ĵ": 3926,
      "æ¸ħåįķ": 3927,
      "é¢Ĩå¯¼": 3928,
      "è¿½æ±Ĥ": 3929,
      "éģŃ": 3930,
      "æĦŁåĪ°å¾Ī": 3931,
      "æĬĬè¿Ļåı¥è¯Ŀç¿»è¯ĳæĪĲæĸĩè¨Ģæĸĩ": 3932,
      "åŃ¸": 3933,
      "ä¾¯": 3934,
      "å¥³æĢ§": 3935,
      "Ġå½ĵçĦ¶åı¯ä»¥": 3936,
      "æľīçĿĢ": 3937,
      "æĻºæħ§": 3938,
      "åºĶè¯¥æĺ¯": 3939,
      "éª¤": 3940,
      "è¯ŃéŁ³è¯ĨåĪ«": 3941,
      "è´«": 3942,
      "èº«å¿ĥ": 3943,
      "ä¸Ĭè¿°æĸĩæľ¬è¿Ľè¡ĮçºłéĶĻ": 3944,
      "ç¼ĺ": 3945,
      "èį·": 3946,
      "æİ¢è®¨äºĨ": 3947,
      "åĪĹä¸¾": 3948,
      "æłĩåĩĨ": 3949,
      "è¯»èĢħ": 3950,
      "ï¼ī<|": 3951,
      "ä»¥ä¸ĭéĹ®é¢ĺ": 3952,
      "æĹ¶æľŁ": 3953,
      "è§Ĥçľĭ": 3954,
      "è§Ĩé¢ĳ": 3955,
      "ä¸ĭéĻį": 3956,
      "æŀ¶": 3957,
      "æĢª": 3958,
      "æ°Ľ": 3959,
      "åºĶçĶ¨äºİ": 3960,
      "çļĦå·¥ä½ľ": 3961,
      "åĩĢ": 3962,
      "ä½Ĩå¥¹": 3963,
      "é¥°": 3964,
      "ä¸ºåħ¶": 3965,
      "å¨ģèĥģ": 3966,
      "æĹ¶éĹ´åĴĮ": 3967,
      "ä¸ľäº¬": 3968,
      "åħĪçĶŁ": 3969,
      "æĪĳéĿŀå¸¸åĸľæ¬¢": 3970,
      "éĩĮéĿ¢": 3971,
      "æĬĬè¿Ļåı¥è¯Ŀç¿»è¯ĳæĪĲçİ°ä»£æĸĩ": 3972,
      "è´¯": 3973,
      "åŀĤ": 3974,
      "åįģå¹´": 3975,
      "ä½¿åħ¶æĽ´æĺĵäºİçĲĨè§£": 3976,
      "åı¤ä»£æĢİä¹Īè¯´": 3977,
      "çĤ¸": 3978,
      "ä¸»ä¹ī": 3979,
      "æ¨¡æĭŁ": 3980,
      "ç¨³å®ļ": 3981,
      "çļĦä¹¦": 3982,
      "åıĬåħ¶": 3983,
      "çļĦæŃĮæĽ²": 3984,
      "ä½Ĩä¸į": 3985,
      "éĿŀå¸¸æľīè¶£": 3986,
      "æ·±åĳ¼åĲ¸": 3987,
      "æĹ©æĻ¨": 3988,
      "åľ°ä¸Ĭ": 3989,
      "è¿Ļæ¬¡": 3990,
      "æĻ¯èī²": 3991,
      "èĽĭçĻ½": 3992,
      "åľ¨ä¸Ģä¸ª": 3993,
      "è¯·éļıæĹ¶": 3994,
      "ä¸Ģæ®µè¯Ŀ": 3995,
      "çļĦæĬĢæľ¯": 3996,
      "æĤ¨å¥½": 3997,
      "è½»æĿ¾": 3998,
      "ä½łèĥ½åĳĬè¯īæĪĳ": 3999,
      "ä¸ģ": 4000,
      "å°½å¿«": 4001,
      "æĲº": 4002,
      "çļĦæ´»åĬ¨": 4003,
      "å¯º": 4004,
      "ä»¥ä¸ĭæĺ¯ä¸Ģ": 4005,
      "çī©ä½ĵ": 4006,
      "åĳĪ": 4007,
      "ç¾½": 4008,
      "åıĳæĺİ": 4009,
      "æ¨¡å¼ı": 4010,
      "çĶ·åŃ©": 4011,
      "èĤĸ": 4012,
      "å°½åı¯èĥ½": 4013,
      "æ¸ħæ´ģ": 4014,
      "æĹħæ¸¸æĻ¯çĤ¹": 4015,
      "çĶŁåŃĺ": 4016,
      "éľŀ": 4017,
      "è¿Ļä½į": 4018,
      "åĲĥé¥Ń": 4019,
      "æľºåľº": 4020,
      "éĢĻ": 4021,
      "æģ¨": 4022,
      "åĨłåĨĽ": 4023,
      "ä¸ĭæĸĩä¸Ń": 4024,
      "æĥľ": 4025,
      "æĹ¥åŃĲ": 4026,
      "æİĮæı¡": 4027,
      "ä¸ĸçķĮæĿ¯": 4028,
      "ãĢį": 4029,
      "åį§": 4030,
      "é¼ĵåĬ±": 4031,
      "çķª": 4032,
      "èľĤ": 4033,
      "çļĦåħ³éĶ®ä¿¡æģ¯": 4034,
      "å¾Īä¸įéĶĻ": 4035,
      "å¾Īéļ¾": 4036,
      "å»ºè®¾": 4037,
      "æİ¨åĬ¨": 4038,
      "ĶåŃĲ": 4039,
      "çĤĴ": 4040,
      "848": 4041,
      "æĪĲéķ¿": 4042,
      "ä»¥ä¸ĭæ®µèĲ½": 4043,
      "èī³": 4044,
      "å¿ĥèĦı": 4045,
      "ãĢĮ": 4046,
      "ä»ģ": 4047,
      "æĸ°çļĦåı¥åŃĲ": 4048,
      "åı¥åŃĲä¸ŃçļĦ": 4049,
      "æ¯ıä¸ªäººéĥ½": 4050,
      "æŀ«åı¶": 4051,
      "çļĦä¸Ģä¸ª": 4052,
      "æĪĲä¸Ģåı¥è¯Ŀ": 4053,
      "æ·±åĪ»": 4054,
      "åľ¨ä¸Ģèµ·": 4055,
      "åİĨåı²ä¸Ĭ": 4056,
      "åİ¨": 4057,
      "ç¨¿": 4058,
      "éģĩåĪ°äºĨ": 4059,
      "ãĢĳ": 4060,
      "éĶ¦": 4061,
      "æĺŁçĲĥ": 4062,
      "ãĢĲ": 4063,
      "æĽ¼": 4064,
      "å±ķç¤º": 4065,
      "èĢĹ": 4066,
      "æĢĿç»´": 4067,
      "çªģçĦ¶": 4068,
      "æ¶Īæģ¯": 4069,
      "è¦ģçĤ¹": 4070,
      "æ¯ķ": 4071,
      "æĸľ": 4072,
      "è´¡çĮ®": 4073,
      "å¾Ĳ": 4074,
      "åıįåºĶ": 4075,
      "äººä»¬çļĦ": 4076,
      "æĦıå¤§åĪ©éĿ¢": 4077,
      "åıªæĺ¯": 4078,
      "è²Į": 4079,
      "çľŁæŃ£": 4080,
      "è¿ĺåı¯ä»¥": 4081,
      "ç«ŀäºī": 4082,
      "å®¿": 4083,
      "çĽĲ": 4084,
      "ç´§å¼ł": 4085,
      "äºŃ": 4086,
      "å¤®": 4087,
      "æĵİ": 4088,
      "çłĶåıĳ": 4089,
      "ä¸ĭçļĦ": 4090,
      "èĵĿèī²çļĦ": 4091,
      "ä¸ªæĢ§": 4092,
      "æĸ°åŀĭ": 4093,
      "åľ¨æŃ¤": 4094,
      "çĿ£": 4095,
      "å¾®é£İ": 4096,
      "æĺı": 4097,
      "ä¸ºæĪĳ": 4098,
      "ä¹ĥ": 4099,
      "æ®Ĭ": 4100,
      "å²©": 4101,
      "åįľ": 4102,
      "ä½łè§īå¾Ĺ": 4103,
      "æĸĩç«łä¸Ńåħ³äºİ": 4104,
      "è¯·æł¹æį®": 4105,
      "èĤ¡ç¥¨": 4106,
      "ç»Ļå®ļä¸Ģæ®µæĸĩæľ¬": 4107,
      "éĤ£äºĽ": 4108,
      "ä¸Ģä¸ªéĹ®é¢ĺ": 4109,
      "çĭĹçĭĹ": 4110,
      "ä¸ĭéĿ¢çļĦ": 4111,
      "æĺ¯çıłç©ĨæľĹçİĽå³°": 4112,
      "æĿľ": 4113,
      "æ²³æµģ": 4114,
      "äººåı£": 4115,
      "åı¯åĨįçĶŁèĥ½æºĲ": 4116,
      "çŁ¶": 4117,
      "è®¾ç½®": 4118,
      "æĦıè§ģ": 4119,
      "åĲĮæĹ¶ä¹Ł": 4120,
      "æĪĳè§īå¾Ĺ": 4121,
      "æĺİçĻ½": 4122,
      "æľīä¸ĢäºĽ": 4123,
      "çŃīå¾ħ": 4124,
      "è£Ļ": 4125,
      "åģ¶": 4126,
      "æ¯ıå¤©æĹ©ä¸Ĭ": 4127,
      "çİ°è±¡": 4128,
      "çģ°": 4129,
      "è±ª": 4130,
      "æĺ¯ç¾İåĽ½": 4131,
      "è·µ": 4132,
      "åĩ¤": 4133,
      "æ°§åĮĸ": 4134,
      "éŃĤ": 4135,
      "å¼±": 4136,
      "åĲ¬åĪ°": 4137,
      "æĪĳæĺ¯ä¸Ģä¸ª": 4138,
      "æŃ»äº¡": 4139,
      "å±ı": 4140,
      "ç¨İ": 4141,
      "çİ¯ä¿ĿçļĦ": 4142,
      "è³": 4143,
      "çĶŁæĪĲä¸Ģåı¥": 4144,
      "éĻĦè¿ĳçļĦ": 4145,
      "è¯ĨåĪ«åĩºä¸Ĭæĸĩ": 4146,
      "éĩįæĸ°ç¼ĸåĨĻä»¥ä¸ĭåı¥åŃĲ": 4147,
      "ä¸ļåĬ¡": 4148,
      "å¾Īé«ĺåħ´": 4149,
      "æĥ³åİ»": 4150,
      "èĤł": 4151,
      "è¿Ļä»½": 4152,
      "æĿī": 4153,
      "æľºç¥¨": 4154,
      "æĹłäºº": 4155,
      "è¢ĸ": 4156,
      "åĮĸåŃ¦": 4157,
      "éī": 4158,
      "å¨±ä¹Ĳ": 4159,
      "æĢĸ": 4160,
      "è¿Ļé¦ĸè¯Ĺ": 4161,
      "è¶³å¤ŁçļĦ": 4162,
      "ç»Ļå®ļä¸Ģç¯ĩæĸĩç«ł": 4163,
      "æ³ķè§Ħ": 4164,
      "æ·±åħ¥": 4165,
      "è¿Ļæĺ¯ä¸Ģæ®µ": 4166,
      "ç»ĵè®º": 4167,
      "æĪĳæĺ¯": 4168,
      "è¯ĦåĪĨ": 4169,
      "åı¤è¯Ĺè¯į": 4170,
      "é£İæĻ¯": 4171,
      "çĳŁ": 4172,
      "æĬ½åıĸåĩºæĸĩæľ¬ä¸ŃçļĦ": 4173,
      "æ£ĴäºĨ": 4174,
      "åĨľä¸ļ": 4175,
      "ä¸ĭæĸĩä¸ŃåŃĺåľ¨åĵªäºĽå®ŀä½ĵ": 4176,
      "åĮ¹": 4177,
      "æģĭ": 4178,
      "æļĤ": 4179,
      "çĥ¹": 4180,
      "åĵĪåĪ©": 4181,
      "æł¹æį®æıĲä¾ĽçļĦæĸĩæľ¬": 4182,
      "è¯ĨåĪ«åĩºä¸Ĭæĸĩä¸ŃçļĦå®ŀä½ĵ": 4183,
      "æ´ª": 4184,
      "å®ĮæĪĲäºĨ": 4185,
      "éĹ®çŃĶ": 4186,
      "æŀģæĢ§": 4187,
      "è°ĥæķ´": 4188,
      "å¤ªæ£ĴäºĨ": 4189,
      "çĽ¸å¯¹": 4190,
      "èĤ¯å®ļ": 4191,
      "è¯·åĽŀçŃĶ": 4192,
      "æıĲåıĸæĸĩç«łä¸ŃçļĦ": 4193,
      "ä¼ĺåĮĸ": 4194,
      "è½¬åĮĸä¸º": 4195,
      "ãĢĤâĢĿ\\": 4196,
      "çī©ç§į": 4197,
      "åīįæĻ¯": 4198,
      "ç¡¬": 4199,
      "æĽ¾ç»ı": 4200,
      "æĢľ": 4201,
      "æĪĳæĥ³è¦ģ": 4202,
      "è¡«": 4203,
      "æłĸ": 4204,
      "æĤ¨æīĢåľ¨": 4205,
      "ä½ľå®¶": 4206,
      "æĸĩç«łä¸ŃæıĲåĪ°äºĨ": 4207,
      "æĢģåº¦": 4208,
      "æ¢¨": 4209,
      "éĢĽ": 4210,
      "ä»ª": 4211,
      "å¹¶å°Ĩåħ¶": 4212,
      "æģĲæĢĸ": 4213,
      "ä¸ªæľĪ": 4214,
      "ç°": 4215,
      "å¾Īæľīè¶£": 4216,
      "æĺİæĺ¾": 4217,
      "åĴĮæĪĳ": 4218,
      "ä¸ĢåĢĭ": 4219,
      "æ¼ł": 4220,
      "å¥¹åĸľæ¬¢": 4221,
      "çħ®": 4222,
      "ä½¿ä¹ĭ": 4223,
      "è¸ª": 4224,
      "ä¸įéľĢè¦ģ": 4225,
      "éī´": 4226,
      "å¾Īå¤§": 4227,
      "è´¤": 4228,
      "æĪĲæľ¬": 4229,
      "æĬ½åıĸåĩºä¸ĭæĸĩ": 4230,
      "åĨ¬å¤©": 4231,
      "ä¸Ńæī¾åĪ°": 4232,
      "æ²Ļæĭī": 4233,
      "è¾Ľ": 4234,
      "æĢĿå¿µ": 4235,
      "å»·": 4236,
      "æŃ¥éª¤": 4237,
      "ç²¾å½©": 4238,
      "æĺİæľĪ": 4239,
      "çĭ®åŃĲ": 4240,
      "å®ļæľŁ": 4241,
      "èģĬèģĬ": 4242,
      "ä¸ĩéĩĮ": 4243,
      "åİ»çľĭ": 4244,
      "å¾·åĽ½": 4245,
      "ç»Ŀåı¥": 4246,
      "èĩªçĦ¶çģ¾å®³": 4247,
      "å¼ķæĵİ": 4248,
      "é¹¤": 4249,
      "å¯»æ±Ĥ": 4250,
      "éķ¿æĹ¶éĹ´": 4251,
      "å¯¼æ¼Ķ": 4252,
      "æĸĩæľ¬ä¸ŃåŃĺåľ¨åĵªäºĽå®ŀä½ĵ": 4253,
      "è¦Ĩ": 4254,
      "å½±åĥı": 4255,
      "è°ĭ": 4256,
      "å¾Īå¥½çļĦ": 4257,
      "å°½ç®¡å¤©æ°Ķ": 4258,
      "å®ŀéªĮ": 4259,
      "èī²å½©": 4260,
      "åıĭå¥½": 4261,
      "åħ¨åĽ½": 4262,
      "é¸Łç±»": 4263,
      "æĸ¹ä¾¿": 4264,
      "åĢį": 4265,
      "æ¶¯": 4266,
      "ä»Ĭå¤©æĹ©ä¸Ĭ": 4267,
      "æĽ´å¤ļä¿¡æģ¯": 4268,
      "åĴĮæ²»çĸĹ": 4269,
      "ä¾µ": 4270,
      "ä¸¾åĬŀ": 4271,
      "éĢĤåºĶ": 4272,
      "åıĤè§Ĥ": 4273,
      "å®¡": 4274,
      "æĬĢæľ¯çļĦ": 4275,
      "æ¡£": 4276,
      "è®¸å¤ļäºº": 4277,
      "çļĦä¸»è¦ģåĨħå®¹": 4278,
      "æĬ½åıĸåĩºæĸĩæľ¬ä¸ŃçļĦå®ŀä½ĵ": 4279,
      "æĢ§èĥ½": 4280,
      "åįķè¯įçļĦ": 4281,
      "å¯¹åħ¶": 4282,
      "åģ¥èº«æĪ¿": 4283,
      "èĴĻ": 4284,
      "å°¼åħĭ": 4285,
      "éĩĩçĶ¨": 4286,
      "æĬ½åıĸåĩºä¸ĭæĸĩä¸ŃçļĦå®ŀä½ĵ": 4287,
      "éĶħ": 4288,
      "åĲİçļĦæĸĩæľ¬": 4289,
      "ç»Ļåĩºä¸Ģä¸ªåı¥åŃĲ": 4290,
      "åĵ²": 4291,
      "ç¾İåĳ³çļĦ": 4292,
      "é£Łè°±": 4293,
      "èĻļæĭŁ": 4294,
      "è¯·æ±Ĥ": 4295,
      "çĻĮçĹĩ": 4296,
      "åħĭçļĦ": 4297,
      "å¤±è´¥": 4298,
      "çĸĳéĹ®åı¥": 4299,
      "æĸ¹æ³ķåı¯ä»¥": 4300,
      "è¯¥æĸĩç«ł": 4301,
      "å¼ºçĥĪ": 4302,
      "å¦Ĥä¸ĭ": 4303,
      "æ³½": 4304,
      "åģıå¥½": 4305,
      "ä¿Ħ": 4306,
      "åºĶçĶ¨é¢ĨåŁŁ": 4307,
      "åı¯èĥ½çļĦ": 4308,
      "çļĦå¥½å¤Ħ": 4309,
      "16": 4310,
      "å¤§èĩªçĦ¶": 4311,
      "å½ĵæĪĳ": 4312,
      "æĺĵè¯»": 4313,
      "ç»Ħç»ĩåĲį": 4314,
      "æĶ¯ä»ĺ": 4315,
      "ä¸ĢçĤ¹": 4316,
      "æľīçĽĬ": 4317,
      "è®²ä¸Ģä¸ª": 4318,
      "è¿Ļä¸ªåŁİå¸Ĥ": 4319,
      "åı¯è¯»æĢ§": 4320,
      "åĩºåıĳ": 4321,
      "é¦Ģ": 4322,
      "æĺ¥é£İ": 4323,
      "å¼ķäºº": 4324,
      "æĺİå¤©çļĦå¤©æ°Ķ": 4325,
      "éķ¿åŁİ": 4326,
      "åİĮ": 4327,
      "çİ¯ä¿ĿæĦıè¯Ĩ": 4328,
      "è§¦": 4329,
      "æĹłéĻĲ": 4330,
      "èħ¾": 4331,
      "æ´ĽæĿī": 4332,
      "æ´ĽæĿīçŁ¶": 4333,
      "ä¸Ģçīĩ": 4334,
      "åĵģå°Ŀ": 4335,
      "åı¤è¯Ĺè¯įç»ŃåĨĻ": 4336,
      "ä¸ĭä¸Ģä¸ª": 4337,
      "éĽģ": 4338,
      "åĩĮ": 4339,
      "æįķ": 4340,
      "èĬĿ": 4341,
      "åĨ³äºİ": 4342,
      "çļĦæĥħç»ª": 4343,
      "è·ĥ": 4344,
      "ä»¥ä¸ĭåı¥åŃĲä¸ŃçļĦ": 4345,
      "åĽŀçŃĶæĤ¨çļĦéĹ®é¢ĺ": 4346,
      "è¦ģæ±ĤæĬ¼éŁµ": 4347,
      "å·¨å¤§çļĦ": 4348,
      "æĻºèĥ½æīĭæľº": 4349,
      "å¤·": 4350,
      "å¹¶è¦ģæ±Ĥ": 4351,
      "èĤ¤": 4352,
      "æĪĳçļĦæľĭåıĭ": 4353,
      "é¸ŁåĦ¿": 4354,
      "æ¼Ĥäº®çļĦ": 4355,
      "åºĻ": 4356,
      "åıĸåĨ³äºİ": 4357,
      "ä¸»äºº": 4358,
      "èĳ±": 4359,
      "æĢĴ": 4360,
      "è¿Ļç¯ĩæĸĩç«łçļĦä¸»è¦ģè§ĤçĤ¹": 4361,
      "èĽĭçĻ½è´¨": 4362,
      "æĽ¹": 4363,
      "æĮĤ": 4364,
      "æĢİæł·": 4365,
      "çľĭåĪ°äºĨ": 4366,
      "å°Ĩä»¥ä¸ĭä¸¤ä¸ªåı¥åŃĲ": 4367,
      "è´¸": 4368,
      "åį«çĶŁ": 4369,
      "å¥½å¤Ħ": 4370,
      "åıĳæĮ¥": 4371,
      "è´¢åĬ¡": 4372,
      "ä½Ĩæĺ¯æĪĳ": 4373,
      "çļĦèĥ½åĬĽ": 4374,
      "å¤§æ°Ķ": 4375,
      "åĢ¼å¾Ĺä¸Ģ": 4376,
      "å®ŀæĸ½": 4377,
      "æĪĳå¾Īé«ĺåħ´": 4378,
      "å¤ļæķ°": 4379,
      "é£ŀè¡Į": 4380,
      "æīĢä»¥æĪĳ": 4381,
      "é¸Ń": 4382,
      "çĦ¶èĢĮ": 4383,
      "å£ģ": 4384,
      "ä¸»åĬ¨è¯ŃæĢģ": 4385,
      "æ²¡æľīè¯Ńæ³ķéĶĻè¯¯": 4386,
      "ç¬¬ä¸Ģä¸ª": 4387,
      "åı£è¯Ń": 4388,
      "æľĢé«ĺæ¸©åº¦": 4389,
      "å¯¹çİ¯å¢ĥ": 4390,
      "çī¹èī²": 4391,
      "è´¦": 4392,
      "è§ĦåĪĴ": 4393,
      "ä¸ĩçī©": 4394,
      "æĹĹ": 4395,
      "ä»ĸä»¬åľ¨": 4396,
      "æĸ¯åĿ¦": 4397,
      "æĿİåįİ": 4398,
      "ä½¿åħ¶æĽ´åĬłæ¸ħæĻ°": 4399,
      "æ¦Ĥè¿°": 4400,
      "å¿ĺè®°": 4401,
      "è¿Ļä»¶": 4402,
      "éĥ½åı¯ä»¥": 4403,
      "èĮĦ": 4404,
      "åĲĦä¸ª": 4405,
      "éĹ®æĪĳ": 4406,
      "èĤª": 4407,
      "éĥ¨éĹ¨": 4408,
      "åŃ¦ä¹łåĴĮ": 4409,
      "æģ°": 4410,
      "èĤĮ": 4411,
      "å¯Ĩçłģ": 4412,
      "åĩºä¸Ģä¸ª": 4413,
      "æ¤Ĵ": 4414,
      "æŁ¥ä¸Ģä¸ĭ": 4415,
      "èĩªåĬ¨åĮĸ": 4416,
      "ä»°": 4417,
      "å®ŀè·µ": 4418,
      "ä¸įè¶³": 4419,
      "ç¿Ķ": 4420,
      "åĤ¨": 4421,
      "èĦĤèĤª": 4422,
      "å²Ĥ": 4423,
      "å¤©ä¸ĭ": 4424,
      "åĩºçĶŁ": 4425,
      "åıĳéĢģ": 4426,
      "éģ£": 4427,
      "è°·æŃĮ": 4428,
      "æĤ¬çĸĳ": 4429,
      "åħĦ": 4430,
      "æĺ¯åĵªä¸ª": 4431,
      "äºļæ´²": 4432,
      "ä¼ĺç§ĢçļĦ": 4433,
      "æ¸©å®¤": 4434,
      "éŃı": 4435,
      "çĶµè§Ĩåī§": 4436,
      "è¿Ľè¡Įåı¤è¯Ĺç»ŃåĨĻ": 4437,
      "æĥħæĦŁåĪĨç±»": 4438,
      "çİ¯ä¿Ŀæİªæĸ½": 4439,
      "èĻ½çĦ¶ä»ĸ": 4440,
      "æķĮ": 4441,
      "ç»Ļå®ļä¸¤ä¸ªåı¥åŃĲ": 4442,
      "æĮĩåįĹ": 4443,
      "åİĺ": 4444,
      "æį·": 4445,
      "åĩºçļĦ": 4446,
      "è¿Ľå±ķ": 4447,
      "è¿ĩçļĦ": 4448,
      "æľ¬å°ıè¯´": 4449,
      "âĢĿãĢģ": 4450,
      "æĨ": 4451,
      "æĲŃéħį": 4452,
      "èĴĤ": 4453,
      "åħ¼": 4454,
      "åĢ¦": 4455,
      "è°ĵè¯Ń": 4456,
      "åİĤ": 4457,
      "ç»ĻäºĨ": 4458,
      "èī¾": 4459,
      "æĪĳä»¬å°Ĩ": 4460,
      "è§£è¯»": 4461,
      "åĩºäºĨ": 4462,
      "å°ıçĮ«": 4463,
      "èµ·åºĬ": 4464,
      "æĪ¿åŃĲ": 4465,
      "æľĢéĩįè¦ģçļĦ": 4466,
      "å¾¡": 4467,
      "å¥¹åľ¨": 4468,
      "ä¼ĺåĬ¿": 4469,
      "æİ¨èįĲä¸ĢäºĽ": 4470,
      "èĢģèĻİ": 4471,
      "æĿİåĽĽ": 4472,
      "ãĢĭãĢĤ<|": 4473,
      "å¦»": 4474,
      "ä¼ģé¹ħ": 4475,
      "ä½łè®¤ä¸º": 4476,
      "æĢİä¹ĪåĬŀ": 4477,
      "ä»ĸè¯´": 4478,
      "çļĦæİªæĸ½": 4479,
      "æĹģ": 4480,
      "æĻĤ": 4481,
      "è¿Ļæĺ¯ä¸Ģç¯ĩåħ³äºİ": 4482,
      "åĪĨåĪ«æĺ¯": 4483,
      "å¸Ĥä¸Ńå¿ĥ": 4484,
      "èªī": 4485,
      "æľīçļĦ": 4486,
      "æĥ«": 4487,
      "åįģäºĮ": 4488,
      "åĲĪéĢĤçļĦæłĩé¢ĺ": 4489,
      "ä¾į": 4490,
      "ä»İä»¥ä¸ĭæĸĩæľ¬": 4491,
      "éĿŀæ´²": 4492,
      "çĮİ": 4493,
      "ç¼ºçĤ¹": 4494,
      "å¯¿åĳ½": 4495,
      "åı¤èĢģ": 4496,
      "çļĦç¬ĳè¯Ŀ": 4497,
      "èĬĴ": 4498,
      "èĬĤçĽ®": 4499,
      "æľªæĿ¥åıĳå±ķ": 4500,
      "å¹³éĿ¢": 4501,
      "æıŃ": 4502,
      "ç¿©": 4503,
      "éĩįåĨĻä¸ĭéĿ¢çļĦåı¥åŃĲ": 4504,
      "è®¡ç®Ĺæľºç§ĳåŃ¦": 4505,
      "âĢ¦âĢ¦": 4506,
      "å°±ä¸ļ": 4507,
      "å½ĵåľ°çļĦ": 4508,
      "çº¢æ¥¼": 4509,
      "æ°¸è¿ľ": 4510,
      "æ³°åĿ¦": 4511,
      "éĺģ": 4512,
      "åĳ¨åĽ´": 4513,
      "ç»Łè®¡": 4514,
      "ç¨ĭåº¦": 4515,
      "æ²®": 4516,
      "ç»µ": 4517,
      "åį¢": 4518,
      "éĢĴ": 4519,
      "èİİ": 4520,
      "çĸ²æĥ«": 4521,
      "çļĦä½įç½®": 4522,
      "é¡µ": 4523,
      "éģµ": 4524,
      "æ¶²": 4525,
      "å¾Ĺå¾Ī": 4526,
      "éĽ¾": 4527,
      "æĶ¾åľ¨": 4528,
      "èıľåįķ": 4529,
      "æ¬£èµı": 4530,
      "ç«Ł": 4531,
      "åľ°åĿĢ": 4532,
      "æĶ¶åħ¥": 4533,
      "æ¶µ": 4534,
      "é¢ĨåŁŁçļĦ": 4535,
      "èĮ«": 4536,
      "æĪĳæĹłæ³ķæıĲä¾Ľ": 4537,
      "ç»ĵæĿŁ": 4538,
      "å¾ĹåĪ°äºĨ": 4539,
      "æ§": 4540,
      "æĪĳæľĢåĸľæ¬¢çļĦ": 4541,
      "æĹ¨åľ¨": 4542,
      "ä¸ĢçĽ´åľ¨": 4543,
      "çĶŁæ´»ä¸Ń": 4544,
      "æħĪ": 4545,
      "åĭķ": 4546,
      "éĶĢåĶ®é¢Ŀ": 4547,
      "ä¸Ģç¯ĩåħ³äºİ": 4548,
      "æľĢé«ĺæ°Ķæ¸©": 4549,
      "è¿ħéĢŁ": 4550,
      "æ³°åĿ¦å°¼åħĭ": 4551,
      "å¤º": 4552,
      "è®¯": 4553,
      "çĥĤ": 4554,
      "æł¼å¼ı": 4555,
      "ä¸Ĭæĺł": 4556,
      "è¯¥è¯Ħè®º": 4557,
      "çļĦåĬ¨çī©": 4558,
      "å¤§åĨĻ": 4559,
      "è£ģ": 4560,
      "åįļå®¢": 4561,
      "æĪĲå°±": 4562,
      "ä½łæľĢåĸľæ¬¢çļĦ": 4563,
      "éĢĲæ¸Ĳ": 4564,
      "åĭĩæķ¢": 4565,
      "æĸ°åĨł": 4566,
      "æ´Ĵ": 4567,
      "ä¸įåĪ°": 4568,
      "ä¸ªåŃĹç¬¦": 4569,
      "ĠĠ": 4570,
      "åĴĮæľĭåıĭ": 4571,
      "å¤§çĨĬçĮ«": 4572,
      "è¿ĩç¨ĭä¸Ń": 4573,
      "èµİ": 4574,
      "å¯¹èģĶ": 4575,
      "çĻ½äºĳ": 4576,
      "æ³°åĿ¦å°¼åħĭåı·": 4577,
      "åĩºè¡Į": 4578,
      "æĪĳåı¯ä»¥ä¸ºæĤ¨": 4579,
      "åģļä»Ģä¹Ī": 4580,
      "ä¸Ģéģį": 4581,
      "æĸĩæĺİ": 4582,
      "ä¸įçŁ¥": 4583,
      "æľªçŁ¥": 4584,
      "è¯Ńæ³ķæŃ£ç¡®": 4585,
      "åı¯ä»¥æĺ¯": 4586,
      "åłµ": 4587,
      "æŀ¯": 4588,
      "ä½łåľ¨": 4589,
      "æĿ¥æºĲ": 4590,
      "åīĳ": 4591,
      "æĹłè®º": 4592,
      "éĻ¤äºĨ": 4593,
      "å¤ıå¤©çļĦ": 4594,
      "æ³¢çī¹": 4595,
      "èħ¿": 4596,
      "éªĳèĩªè¡Įè½¦": 4597,
      "æ©ĺ": 4598,
      "éĻĪè¿°åı¥": 4599,
      "æĤ£èĢħ": 4600,
      "å½¢çļĦ": 4601,
      "ä»İè¿Ļç¯ĩæĸĩç«łä¸Ń": 4602,
      "ï¼Ł\\": 4603,
      "åĭĴ": 4604,
      "å°½ç®¡å¥¹": 4605,
      "è¿Ļåº§": 4606,
      "éĴĵ": 4607,
      "åĪ·": 4608,
      "âĢĻ": 4609,
      "2021": 4610,
      "è¯·ä»İæĸĩç«łä¸ŃæıĲåıĸ": 4611,
      "èµł": 4612,
      "åĿĲåľ¨": 4613,
      "è¯ı": 4614,
      "ä»Ĭå¤©æĺ¯": 4615,
      "äºĨä¸Ģç§į": 4616,
      "éĻª": 4617,
      "å¦Ĥä½ķåľ¨": 4618,
      "èģĶåĲĪ": 4619,
      "åĦ¿ç«¥": 4620,
      "çļĦæķ°æį®": 4621,
      "Ġåľ¨": 4622,
      "çĽĪ": 4623,
      "è¡¨è¾¾æĸ¹å¼ı": 4624,
      "ä¸įçĽ¸åĲĮ": 4625,
      "éĺ»": 4626,
      "åĵģè´¨": 4627,
      "æľĢåĸľæ¬¢çļĦçĶµå½±": 4628,
      "åıĺå¾ĹæĽ´åĬł": 4629,
      "èĥ½éĩı": 4630,
      "åĪĨä¸º": 4631,
      "âĢĺ": 4632,
      "çĽ¸äºĴ": 4633,
      "è¯¥åħ¬åı¸": 4634,
      "å¸®å¿Ļ": 4635,
      "è®°å¿Ĩ": 4636,
      "åĶ±æŃĮ": 4637,
      "æĸĳ": 4638,
      "ä»¥èİ·åıĸ": 4639,
      "æ±¤å§Ĩ": 4640,
      "2022": 4641,
      "èµ¶": 4642,
      "éľĢè¦ģæıĲä¾Ľ": 4643,
      "å¸®åĬ©ä½ł": 4644,
      "æłĳåı¶": 4645,
      "æļĳ": 4646,
      "é©¬æĭīéĽħ": 4647,
      "åĸľé©¬æĭīéĽħ": 4648,
      "åŀĥåľ¾éĤ®ä»¶": 4649,
      "ç¥ŀç»ıç½ĳç»ľ": 4650,
      "çº¢æ¥¼æ¢¦": 4651,
      "å°ĨåĨĽ": 4652,
      "èĬ¬": 4653,
      "è¯Ħä¼°": 4654,
      "èĥľåĪ©": 4655,
      "çļĦæľįåĬ¡": 4656,
      "ä¸Ńå¤®": 4657,
      "çĻ¼": 4658,
      "å®ŀä½ĵæĬ½åıĸ": 4659,
      "æĺ¯æŃ£ç¡®çļĦ": 4660,
      "è¯¦ç»ĨçļĦ": 4661,
      "é»Ħèī²": 4662,
      "å¤±æľĽ": 4663,
      "æĲľç´¢å¼ķæĵİ": 4664,
      "æ¾³": 4665,
      "ä¼ļæľī": 4666,
      "ï¼ģ\"<|": 4667,
      "æľĪäº®": 4668,
      "äº¤æĺĵ": 4669,
      "çĽ¸åºĶçļĦ": 4670,
      "ç§¯æŀģçļĦ": 4671,
      "æ²®ä¸§": 4672,
      "ä½łçŁ¥éģĵ": 4673,
      "è§Ĥä¼Ĺ": 4674,
      "è¿ģ": 4675,
      "å°Ĩä»¥ä¸ĭåı¥åŃĲæĶ¹åĨĻä¸º": 4676,
      "æĺĤ": 4677,
      "ä¸Ńæľī": 4678,
      "äºİæĺ¯": 4679,
      "æ¸©å®¤æ°Ķä½ĵ": 4680,
      "è¿Ļç¯ĩæĸĩç«łçļĦ": 4681,
      "è¿«": 4682,
      "å»ºè®®åĲĹ": 4683,
      "åĮºåĿĹ": 4684,
      "äººå·¥æĻºèĥ½çļĦåºĶçĶ¨é¢ĨåŁŁ": 4685,
      "çĪ¶æ¯į": 4686,
      "ä½łä»¬": 4687,
      "æĺ¯åĲ¦æľī": 4688,
      "æ¡ĮåŃĲ": 4689,
      "è¿ĺåī©": 4690,
      "æ¼«æŃ¥": 4691,
      "çŃĶæ¡Īæĺ¯": 4692,
      "éĤĢ": 4693,
      "å½ĵæĹ¶": 4694,
      "åŃĹç¬¦ä¸²": 4695,
      "åĽłä¸ºå®ĥä»¬": 4696,
      "âĦĥï¼Į": 4697,
      "é²¸é±¼": 4698,
      "æĸĩç«łä¸ŃæıĲåĪ°çļĦ": 4699,
      "æĪĳè¦ģ": 4700,
      "ä¼łæĴŃ": 4701,
      "è¯Ĺåı¥": 4702,
      "æĸĩæľ¬åĨħå®¹": 4703,
      "äºĭæķħ": 4704,
      "è¡°": 4705,
      "åĩŃ": 4706,
      "æĬĵ": 4707,
      "Ġåħ¶ä¸Ģ": 4708,
      "åĮºåĿĹéĵ¾": 4709,
      "éĹ¹": 4710,
      "åĽĽä¸ª": 4711,
      "æīĢéľĢ": 4712,
      "èĸ¯": 4713,
      "å¹¶è¿Ľè¡Į": 4714,
      "çĶµå½±çļĦ": 4715,
      "å¯¸": 4716,
      "28": 4717,
      "æŀģç«¯": 4718,
      "åŃĹæ¯įé¡ºåºı": 4719,
      "çĭ¬çī¹çļĦ": 4720,
      "æ²¿": 4721,
      "ä¹ĭå¤Ħ": 4722,
      "æĪĲåĬŁçļĦ": 4723,
      "æ¶¨": 4724,
      "åĢļ": 4725,
      "æ£Ģæµĭ": 4726,
      "æ»´": 4727,
      "æµħ": 4728,
      "æĺ¯æŃ£éĿ¢": 4729,
      "âĢĿãĢģâĢľ": 4730,
      "ä»İä»¥ä¸ĭ": 4731,
      "åıĬæĹ¶": 4732,
      "å¤įåĲĪ": 4733,
      "å®¤åĨħ": 4734,
      "...": 4735,
      "è¾ħåĬ©": 4736,
      "åį¿": 4737,
      "è¿Ŀ": 4738,
      "æ¯«": 4739,
      "ç¡®è®¤": 4740,
      "ä¹Ķæ²»": 4741,
      "ä¸Ģéģĵ": 4742,
      "ç»ĵåĲĪ": 4743,
      "æĤ¨åı¯ä»¥å°Ŀè¯ķ": 4744,
      "æ¯ıå¤©éĥ½": 4745,
      "æķĳèµİ": 4746,
      "ä¸įéĶĻçļĦ": 4747,
      "ä»Ĭå¤©å¤©æ°ĶçľŁå¥½": 4748,
      "æĹłèģĬ": 4749,
      "ä¸ºé¢ĺ": 4750,
      "å®´": 4751,
      "éĿ¢å¯¹": 4752,
      "ï¼Ł\"": 4753,
      "11": 4754,
      "è¿ĳæľŁ": 4755,
      "æĩĴ": 4756,
      "å²ģæľĪ": 4757,
      "çļĦä»»åĬ¡": 4758,
      "æĺ¯äººç±»": 4759,
      "ç½ĳä¸Ĭ": 4760,
      "éĩįå¤§": 4761,
      "å¦Īå¦Ī": 4762,
      "åĩºçİ°äºĨ": 4763,
      "é¥ª": 4764,
      "ä»İæĸĩç«łä¸Ń": 4765,
      "è§Ħæ¨¡": 4766,
      "ä¸įå®¢æ°Ķ": 4767,
      "éĩįæĸ°æİĴåĪĹ": 4768,
      "çĽ®çļĦ": 4769,
      "è°ľè¯Ń": 4770,
      "åı¦ä¸Ģä¸ª": 4771,
      "çĥ¹é¥ª": 4772,
      "çĶµå½±åĲįç§°": 4773,
      "åķ¼": 4774,
      "åľ¨äºİ": 4775,
      "å¦¹": 4776,
      "å¸¦æĿ¥çļĦ": 4777,
      "å¤ªç©ºæİ¢ç´¢": 4778,
      "åºĨç¥Ŀ": 4779,
      "çļĦåĲĹ": 4780,
      "æıĴ": 4781,
      "æĤ¨æĥ³": 4782,
      "çĮª": 4783,
      "æĽ´åħ·ä½ĵçļĦä¿¡æģ¯": 4784,
      "Ġæııè¿°": 4785,
      "æł¹æį®çĶ¨æĪ·": 4786,
      "çľŁå®ŀ": 4787,
      "æ²ŁéĢļ": 4788,
      "éĥ¡": 4789,
      "ç¤¾åĮº": 4790,
      "çĶ·åŃĲ": 4791,
      "éĢĨ": 4792,
      "å¤§åľ°": 4793,
      "å¤§å°ı": 4794,
      "å¤§å¤ļæķ°": 4795,
      "éĩĮæľī": 4796,
      "è¡¨éĿ¢": 4797,
      "é¢Ī": 4798,
      "çģ«æĺŁ": 4799,
      "æĦĪ": 4800,
      "ä¹ĲæĦı": 4801,
      "å¥ī": 4802,
      "éĤ»": 4803,
      "åĽ¾åĥıè¯ĨåĪ«": 4804,
      "æĦ¿æĦı": 4805,
      "ä¸ŃéĢīæĭ©": 4806,
      "é£ŁæĿĲ": 4807,
      "ä¸ĢåĪĻ": 4808,
      "åįĹæŀģ": 4809,
      "å¼ºè°ĥäºĨ": 4810,
      "çļĦç»ĵæŀľ": 4811,
      "çĶŁæĪĲä¸Ģä¸ªç®ĢçŁŃçļĦ": 4812,
      "æľĢä½İæ¸©åº¦": 4813,
      "èĺ": 4814,
      "åĵĢ": 4815,
      "èµĸ": 4816,
      "èĬĤæĹ¥": 4817,
      "åħ¶ä¸ŃåĮħåĲ«": 4818,
      "æ³¥": 4819,
      "èĬ±å¼Ģ": 4820,
      "åĢ¾åĲĳ": 4821,
      "åĴĮæĸĩåĮĸ": 4822,
      "è¡¬": 4823,
      "æµ·å¹³éĿ¢": 4824,
      "\"ãĢĤ<|": 4825,
      "ä¸ºä¸Ģç¯ĩæĸĩç«ł": 4826,
      "Ġåħ¶äºĮ": 4827,
      "ä¸īè§Ĵ": 4828,
      "é¢ĨåŁŁçļĦåºĶçĶ¨": 4829,
      "çĽĹ": 4830,
      "æ¬¡æķ°": 4831,
      "èĢģé¼ł": 4832,
      "ç¬¬äºĮä¸ª": 4833,
      "åīª": 4834,
      "ä¸Ģèµ·åİ»": 4835,
      "å°Ĩä¸ĭéĿ¢çļĦåı¥åŃĲ": 4836,
      "è´´": 4837,
      "æĥ³è±¡": 4838,
      "éĺĶ": 4839,
      "éĿŀå¸¸æľī": 4840,
      "æĢ§éĹ®é¢ĺ": 4841,
      "éĶ»çĤ¼èº«ä½ĵ": 4842,
      "è¿Ļä¹Ī": 4843,
      "æĬµ": 4844,
      "ç»Ļå®ļä¸Ģåı¥è¯Ŀ": 4845,
      "çļĦæ®µèĲ½": 4846,
      "ä¼Ĳ": 4847,
      "ç²®": 4848,
      "ç¢³æİĴæĶ¾": 4849,
      "æ¼ı": 4850,
      "æĸĩæľ¬ä¸ŃçļĦéĶĻè¯¯": 4851,
      "è¯·ä¸ºæĪĳ": 4852,
      "è¢Ń": 4853,
      "åĮºåŁŁ": 4854,
      "å¼ĢæĶ¾å¼ı": 4855,
      "çļĦè¯Ŀé¢ĺ": 4856,
      "å°¤åħ¶æĺ¯": 4857,
      "è¿ĺéľĢè¦ģ": 4858,
      "åķĨåľº": 4859,
      "èĤĸçĶ³": 4860,
      "è¯·ä»İè¿Ļç¯ĩæĸĩç«łä¸ŃæıĲåıĸåĩº": 4861,
      "å§Ĳ": 4862,
      "æııè¿°ä¸Ģä¸ĭ": 4863,
      "åıªèĥ½": 4864,
      "XX": 4865,
      "æĿ¥çļĦ": 4866,
      "åĲĥçļĦ": 4867,
      "æĮĩå¯¼": 4868,
      "ä¸»æĹ¨": 4869,
      "èĭ±éĽĦ": 4870,
      "çłĶç©¶åıĳçİ°": 4871,
      "çģµæĦŁ": 4872,
      "æ´¾å¯¹": 4873,
      "è«": 4874,
      "åľ°çĲĥçļĦ": 4875,
      "å®ĥåı¯ä»¥": 4876,
      "æııè¿°ä¸Ģä¸ª": 4877,
      "äºĨä¸Ģå®¶": 4878,
      "æıĲä¾ĽäºĨ": 4879,
      "ä»İä½ł": 4880,
      "éĻ¶": 4881,
      "è®¤è¯Ĩ": 4882,
      "ä½¿åħ¶æĽ´ç®Ģæ´ģæĺİäºĨ": 4883,
      "çīĽèĤī": 4884,
      "çļĦè¯Ńæ°Ķ": 4885,
      "çĶŁæĪĲæĳĺè¦ģ": 4886,
      "è¯¥åįķè¯į": 4887,
      "ï¼ģâĢĿ": 4888,
      "è®©GPTæ¨¡åŀĭ": 4889,
      "æĹłæ³ķç¡®å®ļ": 4890,
      "äººéĹ´": 4891,
      "ç»ĻæĪĳä¸ĢäºĽ": 4892,
      "åĪĢ": 4893,
      "æ³¡": 4894,
      "è·ŁæĪĳ": 4895,
      "æĽ´åħ·ä½ĵçļĦ": 4896,
      "ç¼ĸç¨ĭè¯Ńè¨Ģ": 4897,
      "æĪĳçİ°åľ¨": 4898,
      "åĭĥ": 4899,
      "ç§ĳå¹»å°ıè¯´": 4900,
      "å¯¹äººç±»": 4901,
      "åºĶçĶ¨çļĦ": 4902,
      "è§£åĨ³éĹ®é¢ĺ": 4903,
      "æłĩè®°": 4904,
      "è§Ħå¾ĭ": 4905,
      "ä½ľä¸ºAIè¯Ńè¨Ģæ¨¡åŀĭ": 4906,
      "è¡ĮæĶ¿": 4907,
      "æĻ´å¤©": 4908,
      "æī«": 4909,
      "æ¸ħæ¥ļ": 4910,
      "åħ·å¤ĩ": 4911,
      "åĪĽä½ľä¸Ģé¦ĸ": 4912,
      "Ġ(": 4913,
      "|>\"": 4914,
      "éģĵå¾·": 4915,
      "åĲ¬è¯´": 4916,
      "éĺ²æĻĴ": 4917,
      "æł¹æį®ä»¥ä¸ĭè¾ĵåħ¥": 4918,
      "èĴ¸": 4919,
      "åĸľé©¬æĭīéĽħå±±èĦī": 4920,
      "æ¡Ĥ": 4921,
      "é¼»": 4922,
      "èĤĸçĶ³åħĭçļĦ": 4923,
      "ä½©": 4924,
      "åĽŀå¤į": 4925,
      "å·¥ç¨ĭå¸Ī": 4926,
      "äººéĥ½": 4927,
      "ä»Ĺ": 4928,
      "æĢ»ç»ĵä¸Ģä¸ĭ": 4929,
      "èĤĸçĶ³åħĭçļĦæķĳèµİ": 4930,
      "è¿Ļä¸ªæĪĲè¯Ń": 4931,
      "çĪ±çļĦ": 4932,
      "å°±åı¯ä»¥": 4933,
      "è¾ī": 4934,
      "æľīæķĪçļĦ": 4935,
      "å¯¹ä»¥ä¸ĭåı¥åŃĲè¿Ľè¡Į": 4936,
      "çľĭçĶµè§Ĩ": 4937,
      "è¿Ļæ¬¾": 4938,
      "æĹłæ³ķåĽŀçŃĶ": 4939,
      "èģĮä½į": 4940,
      "åħħæ»¡äºĨ": 4941,
      "æĺ¯åĽłä¸º": 4942,
      "ä¿ĿæĮģåģ¥åº·": 4943,
      "åĵĪåĵĪ": 4944,
      "å°¼äºļ": 4945,
      "ä¹°äºĨä¸ĢäºĽ": 4946,
      "æĪĳçĪ±": 4947,
      "ç»Ļå®ļä¸Ģç»Ħ": 4948,
      "èĥŀ": 4949,
      "æīĵç¯®çĲĥ": 4950,
      "ä¸ĬåįĪ": 4951,
      "ä½ķå¤Ħ": 4952,
      "åº¦è¿ĩ": 4953,
      "å¤ķéĺ³": 4954,
      "æľīäºº": 4955,
      "ä¼ļåľ¨": 4956,
      "é£İéĽ¨": 4957,
      "åĨħçļĦ": 4958,
      "åĮĹæŀģ": 4959,
      "ç§°ä¸º": 4960,
      "èĽĩ": 4961,
      ")<|": 4962,
      "æī°": 4963,
      "åľ¨ç»Ļå®ļçļĦæĸĩæľ¬ä¸Ń": 4964,
      "é£İæļ´": 4965,
      "éĥĳ": 4966,
      "æĻļé¥Ń": 4967,
      "Ŀåįľ": 4968,
      "æĦŁåĨĴ": 4969,
      "çĶŁæĪĲä¸Ģæ®µ": 4970,
      "æİ¢éĻ©": 4971,
      "åŁºåĽł": 4972,
      "åĩ¯": 4973,
      "ç¬Ķè®°": 4974,
      "å®¾è¯Ń": 4975,
      "æ¬¢ä¹Ĳ": 4976,
      "æķ°æį®åĪĨæŀĲ": 4977,
      "éĢĤå½ĵçļĦæłĩçĤ¹ç¬¦åı·": 4978,
      "å¥½çľĭçļĦçĶµå½±": 4979,
      "æĥŁ": 4980,
      "å¯¹ä¸įèµ·": 4981,
      "è¿Ļç¯ĩæĸĩç«łçļĦä¸»æĹ¨": 4982,
      "åĪºæ¿Ģ": 4983,
      "ä¸ĺ": 4984,
      "è¯·åľ¨": 4985,
      "åħįçĸ«": 4986,
      "åĩºèī²çļĦ": 4987,
      "åľ°åĽ¾": 4988,
      "è¯´è¯Ŀ": 4989,
      "æ£ĭ": 4990,
      "çİ¯å¢ĥéĹ®é¢ĺ": 4991,
      "æĪĲä¸ºä¸Ģä¸ª": 4992,
      "å¡«åĨĻ": 4993,
      "è¯·æĬĬ": 4994,
      "è°Ĭ": 4995,
      "çĲĨè®º": 4996,
      "å¹¶ä¿ĿæĮģ": 4997,
      "äº§åĵģçļĦ": 4998,
      "æĽ´æ¸ħæĻ°": 4999,
      "è¿Ļç¯ĩæĸĩç«łä¸»è¦ģ": 5000,
      "å¿į": 5001,
      "æĪĳåı¯ä»¥å¸®æĤ¨": 5002,
      "æīĢä»¥ä»ĸ": 5003,
      "éĩİçĶŁ": 5004,
      "ä¼ı": 5005,
      "åĴĮå¹³": 5006,
      "çĶŁç´ł": 5007,
      "17": 5008,
      "éŁ³ä¹Ĳä¼ļ": 5009,
      "åĺī": 5010,
      "æľĢä½İæ°Ķæ¸©": 5011,
      "çļĦçīĪæľ¬": 5012,
      "æľīæĹ¶": 5013,
      "å¤§æĪĺ": 5014,
      "åĬŀåħ¬å®¤": 5015,
      "é£ŁçĶ¨": 5016,
      "æīĢæľīçļĦäººåĲį": 5017,
      "è½¬æį¢æĪĲ": 5018,
      "çī¹å®ļçļĦ": 5019,
      "çĥŃæĥħ": 5020,
      "å±ħæ°ĳ": 5021,
      "çŁ£": 5022,
      "åģ·": 5023,
      "å®¶çļĦ": 5024,
      "13": 5025,
      "çľĭäºĨ": 5026,
      "æĪĸä¸ŃæĢ§": 5027,
      "èĢĮä¸įæĺ¯": 5028,
      "åĩºçİ°çļĦ": 5029,
      "æĺ¯æľĢ": 5030,
      "éĩįè§Ĩ": 5031,
      "å§¿": 5032,
      "æĺİå¤©æĹ©ä¸Ĭ": 5033,
      "éĶģ": 5034,
      "éł": 5035,
      "åľ¨è¿ĩåİ»": 5036,
      "çľī": 5037,
      "åı¯ä»¥æıĲé«ĺ": 5038,
      "æ¸¡": 5039,
      "ä»¥ä¸ĭåı¥åŃĲä¸Ń": 5040,
      "é»ĳèī²": 5041,
      "æĮ¯": 5042,
      "æ¡ĳ": 5043,
      "æĶĢ": 5044,
      "æ»ļ": 5045,
      "ä¼ļè®®ä¸Ĭ": 5046,
      "å¾Īåĸľæ¬¢": 5047,
      "æľŁå¾ħ": 5048,
      "äºĨä¸Ģåľº": 5049,
      "è§Ħå®ļ": 5050,
      "æĸĩç«łçļĦ": 5051,
      "æ®¿": 5052,
      "æ²¡éĹ®é¢ĺ": 5053,
      "å°±ä¼ļ": 5054,
      "åĥ§": 5055,
      "å¼¦": 5056,
      "è®°å¾Ĺ": 5057,
      "çļĦå®ļä¹ī": 5058,
      "ä¸ĬäºĨ": 5059,
      "å¹¶è¿ĶåĽŀ": 5060,
      "åıĹä¼¤": 5061,
      "éĴ¢çĲ´": 5062,
      "æĺĶ": 5063,
      "æı´": 5064,
      "å¼Ģè½¦": 5065,
      "è¾ĵåħ¥æĸĩæľ¬": 5066,
      "å¿ĥçĲĨåģ¥åº·": 5067,
      "ä»İç»Ļå®ļçļĦ": 5068,
      "ä¹ĭæĹħ": 5069,
      "ä¸įä½³": 5070,
      "æĤ¨æĥ³è¦ģ": 5071,
      "è·¯çº¿": 5072,
      "èĿ´": 5073,
      "åı¬": 5074,
      "èī°": 5075,
      "ç¨Ģ": 5076,
      "ä½¿çĶ¨çļĦ": 5077,
      "èŁ": 5078,
      "åĮĨ": 5079,
      "æ¯ģ": 5080,
      "å¾Īå¥½åĲĥ": 5081,
      "åĲįè¯įçŁŃè¯Ń": 5082,
      "åįĵ": 5083,
      "èĿ´èĿ¶": 5084,
      "è¿ĳå¹´æĿ¥": 5085,
      "ä½¿åħ¶æĽ´åĬłç®Ģæĺİæī¼è¦ģ": 5086,
      "åĩıå°ĳæ±¡æŁĵ": 5087,
      "ä»Ģä¹Īæł·çļĦ": 5088,
      "æıĲä¾Ľä¸Ģä¸ªæłĩé¢ĺ": 5089,
      "ç¡®å®ŀ": 5090,
      "è·¨": 5091,
      "åĪ«äºº": 5092,
      "å¤ªéĺ³èĥ½": 5093,
      "åĵªä¸ªåŁİå¸Ĥ": 5094,
      "åŃĿ": 5095,
      "è¿ĲåĬ¨åĳĺ": 5096,
      "æıĲåĩºäºĨ": 5097,
      "é¬¼": 5098,
      "çļĦéĥ¨åĪĨ": 5099,
      "åĲĮä¹ī": 5100,
      "åı«åģļ": 5101,
      "æľīåħ¶ä»ĸ": 5102,
      "ä¿Ŀè¯ģ": 5103,
      "æŀĦå»º": 5104,
      "æĴ°åĨĻ": 5105,
      "500": 5106,
      "èĥ¸": 5107,
      "åĩĿ": 5108,
      "äºĨå¾Ī": 5109,
      "æ³¨éĩį": 5110,
      "å®Įæķ´çļĦåı¥åŃĲ": 5111,
      "çļĦåıįä¹īè¯į": 5112,
      "æĽ´å®¹æĺĵ": 5113,
      "èµ¤": 5114,
      "åĲįçļĦ": 5115,
      "æŃ£å¸¸": 5116,
      "ä¸»é¢ĺæĺ¯": 5117,
      "æŃ§": 5118,
      "è¿Ļåı¥è¯ĿçļĦæĦıæĢĿæĺ¯ä»Ģä¹Ī": 5119,
      "ç½ļ": 5120,
      "åħ³éĶ®çĤ¹": 5121,
      "å¯ĤéĿĻ": 5122,
      "åľ¨éĤ£éĩĮ": 5123,
      "éĩıçļĦ": 5124,
      "å¾ĪåĨ·": 5125,
      "åıªè¦ģ": 5126,
      "åĨ¬åŃ£": 5127,
      "åĵ²åŃ¦": 5128,
      "åĴĮæĹ¶éĹ´": 5129,
      "ä¸»è§Ĵ": 5130,
      "ç¾İå¦Ļ": 5131,
      "é©±": 5132,
      "äº§ä¸ļ": 5133,
      "èĮ¨": 5134,
      "è¥¿çĵľ": 5135,
      "å¯Įæľī": 5136,
      "è¸ı": 5137,
      "ä¸ĭéĿ¢è¯įè¯Ńæĺ¯ä»Ģä¹ĪæĦıæĢĿ": 5138,
      "çľĭæ³ķ": 5139,
      "éĿŀå¸¸åĩºèī²": 5140,
      "çĵ¦": 5141,
      "è´¸æĺĵ": 5142,
      "éĻ·": 5143,
      "è¿Ļåı¥è¯ĿçļĦåĲ«ä¹īæĺ¯ä»Ģä¹Ī": 5144,
      "éĸĴ": 5145,
      "äºĶè¨Ģç»Ŀåı¥": 5146,
      "æĪĳä»¬å¿ħé¡»": 5147,
      "éĥĬ": 5148,
      "éļĨ": 5149,
      "æŃĮæīĭ": 5150,
      "è®¤çľŁ": 5151,
      "åľĭ": 5152,
      "ä¸ĬéĿ¢çļĦ": 5153,
      "æĹ¶åĪ»": 5154,
      "æ¸¸å®¢": 5155,
      "é»ĳæļĹ": 5156,
      "æŁ¿": 5157,
      "è¯·éĹ®æĤ¨éľĢè¦ģ": 5158,
      "åİ»åħ¬åĽŃæķ£æŃ¥": 5159,
      "æıĲä¾ĽçļĦæĸĩæľ¬": 5160,
      "æİ¨è¿Ł": 5161,
      "æĿ¥äºĨ": 5162,
      "ç»´æĬ¤": 5163,
      "åĳĨ": 5164,
      "æĽ´æĸ°": 5165,
      "äººå·¥æĻºèĥ½åľ¨åĮ»çĸĹ": 5166,
      "è¡ĮçļĦ": 5167,
      "åŃ¦ä¼ļ": 5168,
      "æľīå¤ļå°ĳ": 5169,
      "æ¯ıå¹´": 5170,
      "åį±éĻ©": 5171,
      "è£¤": 5172,
      "åį³å°Ĩ": 5173,
      "ä¸īç§į": 5174,
      "å¹³æĸ¹": 5175,
      "å¿ĥèĦıçĹħ": 5176,
      "åŃŁ": 5177,
      "æĪĳå¯¹": 5178,
      "çº¯": 5179,
      "åĲįä¸º": 5180,
      "è¿Ľè¡ĮçºłéĶĻ": 5181,
      "ä»ĬæĹ¥": 5182,
      "çīĩæ®µ": 5183,
      "ä¸ĸçķĮä¸ĬæľĢé«ĺçļĦå±±å³°æĺ¯çıłç©ĨæľĹçİĽå³°": 5184,
      "çķªèĮĦ": 5185,
      "åĽŀå¿Ĩ": 5186,
      "éģĵè·¯": 5187,
      "éĩįæĸ°ç»Ħç»ĩ": 5188,
      "åįĥéĩĮ": 5189,
      "ç£¨": 5190,
      "è¿ĺæľīåħ¶ä»ĸéĹ®é¢ĺ": 5191,
      "å¼Ĺ": 5192,
      "åĲ¦å®ļ": 5193,
      "æĢ¨": 5194,
      "æ¸ħæĸ°": 5195,
      "æķ°åŃ¦é¢ĺ": 5196,
      "åĴĮåħ¶ä»ĸ": 5197,
      "éķ¿æľŁ": 5198,
      "ä¼¼ä¹İ": 5199,
      "å°Ĩä»¥ä¸ĭæĸĩæľ¬ä¸ŃçļĦ": 5200,
      "æŁł": 5201,
      "å¤ªå¤ļ": 5202,
      "ãĢĤâĢĿâĢľ": 5203,
      "ä¹Łä¼ļ": 5204,
      "èİī": 5205,
      "æ·»åĬłä¸Ģä¸ª": 5206,
      "åħĶåŃĲ": 5207,
      "æıĲåĪ°çļĦ": 5208,
      "çĶŁéķ¿": 5209,
      "æĹ¶å°ļ": 5210,
      "åľ°éľĩ": 5211,
      "éŃĶæ³ķ": 5212,
      "å¤§èĦĳ": 5213,
      "å¿ĥä¸Ń": 5214,
      "èıľåĵģ": 5215,
      "èħĲ": 5216,
      "åıĳè¡¨": 5217,
      "å°ĳå¹´": 5218,
      "è§Ĥå¯Ł": 5219,
      "å«Į": 5220,
      "æª¬": 5221,
      "åĩıå°ĳä½¿çĶ¨": 5222,
      "åĦ¿åŃĲ": 5223,
      "ä¸ĵæ³¨": 5224,
      "å²Ń": 5225,
      "ç»¼": 5226,
      "åĽ½åĨħ": 5227,
      "åº¦çļĦ": 5228,
      "é¦Ļæ¸¯": 5229,
      "äºĶè¨Ģè¯Ĺ": 5230,
      "ä»ĩ": 5231,
      "å°¿": 5232,
      "çİĦ": 5233,
      "æ²¡æľīéĶĻè¯¯": 5234,
      "ç¢İ": 5235,
      "å¤§éĩıçļĦ": 5236,
      "æĦŁæŁĵ": 5237,
      "æĥħæĦŁæŀģæĢ§": 5238,
      "æĶ¶åĪ°": 5239,
      "åı¥åı·": 5240,
      "ä¸ºä»¥ä¸ĭæĸĩæľ¬": 5241,
      "éľĢè¦ģæ³¨æĦı": 5242,
      "æĪĳæĥ³åİ»": 5243,
      "åİ¦": 5244,
      "æııè¿°äºĨ": 5245,
      "ç½Ĺæĸ¯": 5246,
      "å¿łè¯ļ": 5247,
      "çļĦä½¿çĶ¨": 5248,
      "æľĢå¤ļ": 5249,
      "ä¸ĸçķĮä¸ĬæľĢå¤§çļĦ": 5250,
      "å¤įåĲĪåı¥": 5251,
      "å¸½": 5252,
      "åĿ¡": 5253,
      "ä¼ĺç¾İ": 5254,
      "åı¯ä»¥åĳĬè¯īæĪĳ": 5255,
      "åĲı": 5256,
      "çī¹æ®Ĭ": 5257,
      "å¤ĸéĿ¢": 5258,
      "åĴĸåķ¡é¦Ĩ": 5259,
      "æŁłæª¬": 5260,
      "è¤": 5261,
      "èµĦæĸĻ": 5262,
      "åħ³éĹŃ": 5263,
      "çļĩå¸Ŀ": 5264,
      "14": 5265,
      "çĶ¨æ°´": 5266,
      "æĸĩæľ¬è¡¨è¾¾äºĨ": 5267,
      "åİ»ä¸ĬçıŃ": 5268,
      "æĺİçĻ½äºĨ": 5269,
      "åĨįæ¬¡": 5270,
      "è¶³çĲĥæ¯ĶèµĽ": 5271,
      "ç¼ĸè¾ĳä¸ĭéĿ¢çļĦåı¥åŃĲ": 5272,
      "è¡¬è¡«": 5273,
      "åŃĶ": 5274,
      "å¡ĳæĸĻè¢ĭ": 5275,
      "Ġä»ĸ": 5276,
      "æī£": 5277,
      "ä»Ģä¹ĪæĥħæĦŁ": 5278,
      "æłĩè¯Ń": 5279,
      "æŀĦéĢł": 5280,
      "æĥ§": 5281,
      "å°ıé¸Ł": 5282,
      "æĶ¹éĿ©": 5283,
      "å·´è¥¿": 5284,
      "æ¶ĪèĢĹ": 5285,
      "åŃ¦æľ¯": 5286,
      "ä»»åĬ¡ä¸Ń": 5287,
      "åħ¶ä¸ŃåĮħæĭ¬": 5288,
      "ç¨ĭåºıåĳĺ": 5289,
      "\"ï¼Į": 5290,
      "åħ¨éĥ¨": 5291,
      "ä¸°å¯ĮçļĦ": 5292,
      "çĲĥéĺŁ": 5293,
      "å¤ĸå¥Ĺ": 5294,
      "èĩªä¸»": 5295,
      "æŃ¥è¡Į": 5296,
      "å¤´çĹĽ": 5297,
      "åĲĦåľ°": 5298,
      "ç§»åĬ¨": 5299,
      "åĶ¯ä¸Ģ": 5300,
      "ä»Ķ": 5301,
      "çŁ¿": 5302,
      "åĮĹäº¬çļĦ": 5303,
      "éŀĭåŃĲ": 5304,
      "çļĦé¢ľèī²": 5305,
      "æľīéĻĲ": 5306,
      "æĬĳ": 5307,
      "å¯¹ä¸ĭéĿ¢çļĦæĸĩæľ¬": 5308,
      "ç¿ģ": 5309,
      "æĶ¾å¼ĥ": 5310,
      "åıĤèĢĥ": 5311,
      "ç¢ĳ": 5312,
      "äºĨä¸Ģéĥ¨": 5313,
      "æĸĩæľ¬è¡¨è¾¾äºĨä»Ģä¹ĪæĥħæĦŁ": 5314,
      "é¸¡èĤī": 5315,
      "çĪ¶äº²": 5316,
      "åĲĲ": 5317,
      "æĸĩæ¡£": 5318,
      "åīĤ": 5319,
      "ä¸ĵå®¶": 5320,
      "æĪĲä¸Ģä¸ªåı¥åŃĲ": 5321,
      "æĭĴ": 5322,
      "å¹¶å°Ĩ": 5323,
      "çĪ¸": 5324,
      "....": 5325,
      "åĩıè½»åİĭåĬĽ": 5326,
      "å¼ķäººåħ¥": 5327,
      "çĳ°": 5328,
      "å¤©åľ°": 5329,
      "è¡¨è¾¾çļĦæĥħç»ª": 5330,
      "çĶļèĩ³": 5331,
      "24": 5332,
      "çĶľçĤ¹": 5333,
      "æĦŁåıĹåĪ°": 5334,
      "éĿ©åĳ½": 5335,
      "ä¸Ģä¸ªæĸ°çļĦ": 5336,
      "èĢĮä¸į": 5337,
      "åħ¨éĿ¢": 5338,
      "è®©å®ĥ": 5339,
      "çĸ²åĬ³": 5340,
      "è¿Ļä¸ªæĪĲè¯ŃçļĦæĦıæĢĿæĺ¯ä»Ģä¹Ī": 5341,
      "è¿Ļä¸ªäºº": 5342,
      "è¯ĬæĸŃåĴĮæ²»çĸĹ": 5343,
      "ä½Ĩä»ĸä»įçĦ¶": 5344,
      "æ²Ī": 5345,
      "å¼ķäººåħ¥èĥľ": 5346,
      "éĺĲ": 5347,
      "è¿ŀè´¯": 5348,
      "æĪĳè¿ĺ": 5349,
      "çĽĴ": 5350,
      "æ¶Į": 5351,
      "æĻ®éĢļ": 5352,
      "æĶ¹æŃ£æĸĩæľ¬ä¸ŃçļĦéĶĻè¯¯": 5353,
      "æĪĳåĢĳ": 5354,
      "è¿Ļæľ¬å°ıè¯´": 5355,
      "ä¸įå¤Ł": 5356,
      "æĺŁæĺŁ": 5357,
      "åĲİçļĦç»ĵæŀľ": 5358,
      "åĲįè¨Ģ": 5359,
      "äºķ": 5360,
      "éĤ¦": 5361,
      "æ¸´": 5362,
      "ä¿ĿéĻ©": 5363,
      "åĽŀçŃĶä»¥ä¸ĭéĹ®é¢ĺ": 5364,
      "ä¿®å¤į": 5365,
      "çĻ¾å¹´": 5366,
      "æ½º": 5367,
      "åľ°åĮºçļĦ": 5368,
      "çŁŃåı¥": 5369,
      "åģļèµ·": 5370,
      "å¯Ĥå¯": 5371,
      "æĶ»åĩ»": 5372,
      "æĹłæ³ķæıĲä¾Ľ": 5373,
      "çĶŁæ´»çļĦ": 5374,
      "æİ¥ç§į": 5375,
      "çķĻä¸ĭ": 5376,
      "ä¾ĿçĦ¶": 5377,
      "çĬ¯ç½ª": 5378,
      "åľĪ": 5379,
      "ä¸ĢåĪĩ": 5380,
      "å°ıçļĦ": 5381,
      "çĶŁæĪĲä¸Ģä¸ªåħ³äºİ": 5382,
      "æ¯įäº²": 5383,
      "çī¹åĪ«æĺ¯": 5384,
      "åı¯ä¹Ĳ": 5385,
      "çı¾": 5386,
      "äºļé©¬": 5387,
      "è¯¥è¯Ħè®ºè¡¨è¾¾çļĦæĥħç»ª": 5388,
      "è¯¥è¯Ħè®ºè¡¨è¾¾çļĦæĥħç»ªæĺ¯ä»Ģä¹Ī": 5389,
      "åĿĩè¡¡": 5390,
      "æµ·å¹³éĿ¢ä¸Ĭåįĩ": 5391,
      "å°¼æ³Ĭ": 5392,
      "æĥĳ": 5393,
      "å¼Ħ": 5394,
      "äºĭä¸ļ": 5395,
      "ç©¿è¶Ĭ": 5396,
      "è®¡ç®Ĺæľºè§Ĩè§ī": 5397,
      "ç¬¬ä¸Ģæ¬¡": 5398,
      "åĨĮ": 5399,
      "è¿Ļéģĵ": 5400,
      "æ°ĽåĽ´": 5401,
      "åĨħå¿ĥ": 5402,
      "æĽ¿ä»£": 5403,
      "åĭĩæ°Ķ": 5404,
      "éĩįæĸ°è¡¨è¿°": 5405,
      "è´ŁéĿ¢å½±åĵį": 5406,
      "ä¸Ģæ¬¡æĢ§": 5407,
      "æµ©": 5408,
      "èĬ±åĽŃéĩĮ": 5409,
      "å°¼æ³Ĭå°Ķ": 5410,
      "æī¶": 5411,
      "èĭ¹æŀľåħ¬åı¸": 5412,
      "æķ°åŃ¦éĹ®é¢ĺ": 5413,
      "éĵº": 5414,
      "æĲŀ": 5415,
      "æĻºèĥ½åĮĸ": 5416,
      "å¼ķåıĳ": 5417,
      "è¿Ļå®¶é¤ĲåİħçļĦé£Łçī©": 5418,
      "èµĲ": 5419,
      "ç½¢": 5420,
      "åľ°çĲĥä¸Ĭ": 5421,
      "çļĦè¯Ńåı¥": 5422,
      "èĪªç©º": 5423,
      "æķħäºĭæĥħèĬĤ": 5424,
      "çĽ¸å½ĵ": 5425,
      "ä¸»é¢ĺçļĦ": 5426,
      "åİī": 5427,
      "åĵŃ": 5428,
      "é¥¿": 5429,
      "ä¸¤ä¸ªåįķè¯į": 5430,
      "ä¸Ľ": 5431,
      "å¾Īç´¯": 5432,
      "åĸľæ¬¢åľ¨": 5433,
      "åİĨåı²äºĭä»¶": 5434,
      "åŃ¦çĶŁä»¬": 5435,
      "ç¼ĵè§£çĦ¦èĻĳ": 5436,
      "äººä½ĵ": 5437,
      "æĬļ": 5438,
      "åĩłå¹´": 5439,
      "çĽ´åĪ°": 5440,
      "çī©çĲĨåŃ¦": 5441,
      "è¿Ļæĺ¯ä¸Ģéĥ¨": 5442,
      "é»ĳæ´ŀ": 5443,
      "éĥŃ": 5444,
      "åĪ¶åĵģ": 5445,
      "èĪĩ": 5446,
      "çİĭæĺŁ": 5447,
      "æĶ¹æŃ£æĸĩæľ¬éĶĻè¯¯": 5448,
      "æĦŁæĥħ": 5449,
      "æĮĩç¤º": 5450,
      "éĩĩåıĸè¡ĮåĬ¨": 5451,
      "æĸĩåĮĸåĴĮ": 5452,
      "è¿½éĢĲ": 5453,
      "èĥ¡èĲ": 5454,
      "ç»Ĩèĥŀ": 5455,
      "è®²è¿°äºĨä¸Ģä¸ª": 5456,
      "èĥ¡èĲĿåįľ": 5457,
      "ãĢĤãĢĬ": 5458,
      "å½»": 5459,
      "éĥ½åľ¨": 5460,
      "è¢«è®¤ä¸º": 5461,
      "å¤ĸåĩº": 5462,
      "çº¤": 5463,
      "æĮº": 5464,
      "çĲĥåĳĺ": 5465,
      "æĺİå¤©çļĦ": 5466,
      "ä¾¿åĪ©": 5467,
      "ç»Ļå®ļä¸Ģä¸ªéĹ®é¢ĺ": 5468,
      "å¯¹ä¸ĭéĿ¢çļĦæĸĩæľ¬è¿Ľè¡ĮçºłéĶĻ": 5469,
      "æĺĨ": 5470,
      "å¯¹ä»¥ä¸ĭ": 5471,
      "æģ¢": 5472,
      "æłĩå¿Ĺ": 5473,
      "æħ°": 5474,
      "å¤ļæł·æĢ§": 5475,
      "æĭĤéĿ¢": 5476,
      "è¿ĩåº¦": 5477,
      "å¾ªçİ¯": 5478,
      "è¿Ī": 5479,
      "çĽĳç®¡": 5480,
      "äºļé©¬éĢĬ": 5481,
      "çĭ¼": 5482,
      "æĵħ": 5483,
      "çļĦæĦŁè§ī": 5484,
      "ä¸Ģä¸ªåħ³äºİ": 5485,
      "åľ°çĲĨ": 5486,
      "å¿ĥçģµ": 5487,
      "åķĨåĬ¡": 5488,
      "å¼Ĥå¸¸": 5489,
      "ç©ºæ°Ķæ±¡æŁĵ": 5490,
      "èĬĤèĥ½": 5491,
      "å°ıæĺİåĴĮ": 5492,
      "äºĮæ°§åĮĸ": 5493,
      "å°Ĩå®ĥä»¬åĲĪå¹¶æĪĲä¸Ģä¸ª": 5494,
      "è¯¥éĹ®é¢ĺ": 5495,
      "ç¥Ī": 5496,
      "æ»¨": 5497,
      "é¸¿": 5498,
      "æĴŃæĶ¾": 5499,
      "äº¤éĢļå·¥åħ·": 5500,
      "è¦ģæ±ĤGPTæ¨¡åŀĭ": 5501,
      "æıĲåıĸåĩºæĿ¥": 5502,
      "ä¹Łä¸į": 5503,
      "8848": 5504,
      "ä½łæĺ¯": 5505,
      "äºĨä¸Ģä»½": 5506,
      "è½»è½»": 5507,
      "çĮ´": 5508,
      "æĺ¯éĿŀå¸¸": 5509,
      "è®¾æĸ½": 5510,
      "å®ģéĿĻ": 5511,
      "å¹½é»ĺ": 5512,
      "åĳĪçİ°": 5513,
      "æĪĲåĪĨ": 5514,
      "æķ°çĻ¾": 5515,
      "é¦ĸåħĪ": 5516,
      "åħĭæľį": 5517,
      "éĥ½å¾Ī": 5518,
      "å»ºè®®ä½ł": 5519,
      "æĽ´åĬłç®Ģæ´ģ": 5520,
      "çĽĳçĿ£": 5521,
      "åĩºçīĪ": 5522,
      "æĽ´ç®ĢåįķçļĦè¯Ńè¨Ģ": 5523,
      "å°Ĩä»¥ä¸ĭåı¥åŃĲéĩįåĨĻä¸º": 5524,
      "çĶŁæĪĲä¸Ģä¸ªåı¥åŃĲ": 5525,
      "å¨ľ": 5526,
      "å¸¦æĿ¥äºĨ": 5527,
      "åľ¨åĮ»çĸĹé¢ĨåŁŁ": 5528,
      "å¥½åĥı": 5529,
      "èģĶçĽŁ": 5530,
      "è¯Ńæ³ķåĴĮæĭ¼åĨĻéĶĻè¯¯": 5531,
      "æĪĳç»ıå¸¸": 5532,
      "çļĦæĦıä¹ī": 5533,
      "æĪĳæīįèĥ½": 5534,
      "åĩ½": 5535,
      "æł¹æį®ç»Ļåĩº": 5536,
      "æľ¨æĺŁ": 5537,
      "åĪĨåŃĲ": 5538,
      "åļ": 5539,
      "ç§Ł": 5540,
      "ä½Ĩå®ĥ": 5541,
      "ç»ıçĲĨ": 5542,
      "çıŃçīĻ": 5543,
      "çļĦä»·æł¼": 5544,
      "æ¤ħ": 5545,
      "on": 5546,
      "åľ°éĵģ": 5547,
      "è·Į": 5548,
      "æ»ĭ": 5549,
      "è¥¿çıŃçīĻ": 5550,
      "æ²Ļæ¼ł": 5551,
      "è¯·æıĲåıĸæĸĩç«łä¸ŃçļĦ": 5552,
      "ç½ĳç«ĻæĪĸ": 5553,
      "è¯·ç»Ļåĩº": 5554,
      "è¾°": 5555,
      "èĩªä¿¡": 5556,
      "ç§įæ¤į": 5557,
      "æĤī": 5558,
      "æ¸Ķ": 5559,
      "å²Ĺ": 5560,
      "å°Ĭéĩį": 5561,
      "åĸľçĪ±": 5562,
      "éĿŀå¸¸éĩįè¦ģ": 5563,
      "ç¨®": 5564,
      "åĪĽå§ĭ": 5565,
      "ä½¿å®ĥ": 5566,
      "æĪĳä»¬åĨ³å®ļ": 5567,
      "é£İåħī": 5568,
      "ï¼ģâĢĿ<|": 5569,
      "ç¥¸": 5570,
      "æĻ¯è±¡": 5571,
      "éĢļè¿ĩèĢĥè¯ķ": 5572,
      "éĩĩåıĸæİªæĸ½": 5573,
      "ç¿ħ": 5574,
      "å¸ĺ": 5575,
      "è´Ńçī©ä¸Ńå¿ĥ": 5576,
      "æĽ´æľī": 5577,
      "è·³èĪŀ": 5578,
      "åı¯ä»¥å°Ŀè¯ķ": 5579,
      "çĥŃçĪ±": 5580,
      "åİ»äºĨè¶ħå¸Ĥ": 5581,
      "åħħè¶³": 5582,
      "ä»¥æĿ¥": 5583,
      "è´¾": 5584,
      "éĤ£è¯·éĹ®": 5585,
      "èıĬ": 5586,
      "æĤ¨åı¯ä»¥åľ¨": 5587,
      "è¿Ļä¸ªæķħäºĭ": 5588,
      "å®īéĿĻ": 5589,
      "ä¸ĳ": 5590,
      "çļĦé¤Ĳåİħ": 5591,
      "ä»²": 5592,
      "åŃ¦ç§ĳ": 5593,
      "æ´¥": 5594,
      "ä¸ªæĢ§åĮĸ": 5595,
      "è®°èĢħ": 5596,
      "çļĦæĥħåĨµä¸ĭ": 5597,
      "å¤§åŀĭ": 5598,
      "æīĭè¡¨": 5599,
      "æĺİæ²»": 5600,
      "å½±çīĩ": 5601,
      "æ·®": 5602,
      "ç»´çĶŁç´ł": 5603,
      "å¥½çİ©": 5604,
      "ä½ĵéĩį": 5605,
      "èİ²": 5606,
      "åĲģ": 5607,
      "çĸ¼": 5608,
      "æ¯ĶèĲ¨": 5609,
      "çĻ½å¤©": 5610,
      "æĽ´å¤ļçļĦä¿¡æģ¯": 5611,
      "æĻ®åıĬ": 5612,
      "çļĦçłĶç©¶": 5613,
      "ä¼į": 5614,
      "çĶŁæĪĲä¸ĢæĿ¡": 5615,
      "è¿Ľè¡Įæ¦Ĥæĭ¬": 5616,
      "å¯¹æĸĩæľ¬éĶĻè¯¯è¿Ľè¡ĮçºłæŃ£": 5617,
      "éĺ¶æ®µ": 5618,
      "åĪĳ": 5619,
      "åĳ¨äºĶ": 5620,
      "èĳ£": 5621,
      "åĴĮæĮĳæĪĺ": 5622,
      "ç½²": 5623,
      "åį«æĺŁ": 5624,
      "å¿ħè¦ģçļĦ": 5625,
      "è¿Ļåľºæ¯ĶèµĽ": 5626,
      "åĸĿä¸ĢæĿ¯": 5627,
      "å·®å¼Ĥ": 5628,
      "æ±Ĺ": 5629,
      "èĬ±é¦Ļ": 5630,
      "æ²Ļåıĳ": 5631,
      "åıĸå¾ĹäºĨ": 5632,
      "çļĦè¯Ńæ³ķ": 5633,
      "çļĦçĶŁæ´»": 5634,
      "çĶµæ±ł": 5635,
      "è±¹": 5636,
      "å¾®ç¬ĳ": 5637,
      "è´§å¸ģ": 5638,
      "è¯·å¯¹ä¸Ĭè¿°æĸĩæľ¬è¿Ľè¡ĮçºłéĶĻ": 5639,
      "æĪĳå¸ĮæľĽ": 5640,
      "æĺ¯æĪĳä»¬": 5641,
      "å±Ĭ": 5642,
      "åįķä½į": 5643,
      "èĬ±è´¹": 5644,
      "è½¦è¾Ĩ": 5645,
      "çĶŁåĬ¨": 5646,
      "ä»¥ä¸ĭæĸĩæľ¬ä¸ŃçļĦ": 5647,
      "ç¼ĵè§£åİĭåĬĽ": 5648,
      "èĬ±æľµ": 5649,
      "åıĭè°Ĭ": 5650,
      "çĢ": 5651,
      "æµ¦": 5652,
      "éľĢè¦ģå¸®åĬ©": 5653,
      "éĿĴå±±": 5654,
      "å¥¥æĸ¯": 5655,
      "çĶŁæĪĲä¸Ģåı¥è¯Ŀ": 5656,
      "åıĳå±ķçļĦ": 5657,
      "æĶ¿æ²»": 5658,
      "è¿Ļé¦ĸæŃĮ": 5659,
      "æĪĲç«ĭ": 5660,
      "å¾Īå¿«": 5661,
      "é¦Ī": 5662,
      "åĪĽå§ĭäºº": 5663,
      "çĽ¸åħ³çļĦéĹ®é¢ĺ": 5664,
      "æĹħæ¸¸çĽ®çļĦåľ°": 5665,
      "åŃ©åŃĲä»¬": 5666,
      "å°ıåŃ¦": 5667,
      "ä¸¤ç§į": 5668,
      "åģļå¥½": 5669,
      "ç´łé£Ł": 5670,
      "å®³æĢķ": 5671,
      "199": 5672,
      "æł¹æį®è¾ĵåħ¥çļĦ": 5673,
      "èĥľåľ°": 5674,
      "åį°è±¡": 5675,
      "å¾Īå¤ļäºº": 5676,
      "çī§": 5677,
      "å¦Ĩ": 5678,
      "æĪĳå°Ĩå°½åĬĽ": 5679,
      "èĿī": 5680,
      "æĪĲæŀľ": 5681,
      "è¯Ńå¢ĥ": 5682,
      "çĻ½èī²": 5683,
      "å¤ªéĺ³ç³»ä¸Ń": 5684,
      "æĿ¥åĪ°": 5685,
      "éģĤ": 5686,
      "æĭĸ": 5687,
      "åħħåĪĨ": 5688,
      "æĤ¨æıĲä¾Ľ": 5689,
      "å¯¹åºĶ": 5690,
      "æĢ§æł¼": 5691,
      "ä¸īæĺİæ²»": 5692,
      "åĤ¬": 5693,
      "æĺĮ": 5694,
      "æĽ´å¿«": 5695,
      "ä»¥ä¸ĭæĸĩç«ł": 5696,
      "å¾ĪåĬªåĬĽ": 5697,
      "å®Įç¾İ": 5698,
      "å¹´è½»äºº": 5699,
      "èµ¢å¾ĹäºĨ": 5700,
      "ä½łå¯¹": 5701,
      "é¦¨": 5702,
      "ä½łåı¯ä»¥å°Ŀè¯ķ": 5703,
      "ç¬¬ä¸Ģä½į": 5704,
      "æ¶Ľ": 5705,
      "æľĪçĲĥ": 5706,
      "èĥ½åĳĬè¯īæĪĳ": 5707,
      "çĺ¦": 5708,
      "æĪĳä¹Ł": 5709,
      "æŀķ": 5710,
      "åĸľæĤ¦": 5711,
      "ç½©": 5712,
      "æĪĳæīĵç®Ĺ": 5713,
      "åı¤åħ¸": 5714,
      "å·¨å¤§": 5715,
      "éĿŀå¸¸åĸľæ¬¢": 5716,
      "ç§ĳåŃ¦å®¶åıĳçİ°": 5717,
      "çŁŃä¿¡": 5718,
      "éĩįåĨĻä»¥ä¸ĭåı¥åŃĲä»¥": 5719,
      "åİ¨æĪ¿": 5720,
      "åľ¨æľªæĿ¥": 5721,
      "çĪµ": 5722,
      "è¦ģæ±Ĥå¯¹": 5723,
      "å®ĥä»¬ä¹ĭéĹ´çļĦ": 5724,
      "ä½¿åħ¶æĽ´æ¸ħæĻ°": 5725,
      "ç¢į": 5726,
      "åŃĲåĴĮ": 5727,
      "çķĶ": 5728,
      "äººå·¥æĻºèĥ½åı¯ä»¥": 5729,
      "èıĮ": 5730,
      "éĻįéĽ¨": 5731,
      "æ²¡æľīéĶĻåĪ«åŃĹ": 5732,
      "æµģæ°´": 5733,
      "æĿİçĻ½": 5734,
      "ç½Ĺé©¬": 5735,
      "æĦŁè§īå¾Ī": 5736,
      "æĪĳåĨ³å®ļ": 5737,
      "è°¢è°¢ä½łçļĦå»ºè®®": 5738,
      "èĤĮèĤī": 5739,
      "çİ©åħ·": 5740,
      "è®¡ç®Ĺæľºç¨ĭåºı": 5741,
      "åĲ¸å¼ķåĬĽ": 5742,
      "ä¿Ħç½Ĺæĸ¯": 5743,
      "æ°Ķæģ¯": 5744,
      "çĤī": 5745,
      "çĶŁæĪĲä¸Ģä»½": 5746,
      "æ¹¾": 5747,
      "æľ¯è¯Ń": 5748,
      "åĪĨæŀĲåĴĮ": 5749,
      "æĪĳä»Ĭå¤©æĹ©ä¸Ĭ": 5750,
      "æģ°å½ĵ": 5751,
      "éĢĿ": 5752,
      "æııç»ĺ": 5753,
      "ä½Ĩä»ĸè¿ĺæĺ¯": 5754,
      "æĪĳä¸ºæĤ¨": 5755,
      "åľ¨è¿ĻéĩĮ": 5756,
      "æĪĳåı¯ä»¥å¸®ä½ł": 5757,
      "åĹ¯": 5758,
      "äººå£«": 5759,
      "æĸ°åı¥åŃĲ": 5760,
      "ä½Ĩæĺ¯ä»ĸ": 5761,
      "ä¸īå¹´": 5762,
      "å½¢è±¡": 5763,
      "ï¼ħ": 5764,
      "ç¿¼": 5765,
      "äººå·¥æĻºèĥ½åľ¨åĮ»çĸĹé¢ĨåŁŁçļĦåºĶçĶ¨": 5766,
      "æ¯ķä¸ļ": 5767,
      "æľºåĻ¨ç¿»è¯ĳ": 5768,
      "åĽ¾çīĩ": 5769,
      "åľŁè±Ĩ": 5770,
      "çļĦå¤©æ°Ķä¿¡æģ¯": 5771,
      "å¡ĺ": 5772,
      "èħĬ": 5773,
      "äººç§°": 5774,
      "ç®Ģç»ĥ": 5775,
      "èµ°äºĨ": 5776,
      "ç¼ºå°ĳ": 5777,
      "æĻ®éģį": 5778,
      "å¯¹åħ¶è¿Ľè¡Į": 5779,
      "æīİ": 5780,
      "åĩłä¹İ": 5781,
      "æłĳæľ¨": 5782,
      "ï¼ŁâĢĿ<|": 5783,
      "çļĦäº§åĵģ": 5784,
      "æĹ¦": 5785,
      "æĽ´åĸľæ¬¢": 5786,
      "éĿ¢è¯ķ": 5787,
      "å²³": 5788,
      "ä¸įå¾Ĺä¸į": 5789,
      "çºµ": 5790,
      "æııåĨĻ": 5791,
      "é½¿": 5792,
      "ä¸įè§ģ": 5793,
      "ä¸Ĭæľī": 5794,
      "åģļäºĨ": 5795,
      "ä¼łè¾¾": 5796,
      "èĵ¬": 5797,
      "èĢĲå¿ĥ": 5798,
      "æ¸ħé£İ": 5799,
      "èĥĨ": 5800,
      "Ġ'": 5801,
      "åºŁå¼ĥ": 5802,
      "æ··åĲĪ": 5803,
      "æĪĳæľī": 5804,
      "ä½łæĥ³è¦ģ": 5805,
      "æīĭæľ¯": 5806,
      "å´ĩ": 5807,
      "åĴĮåıįä¹īè¯į": 5808,
      "çī¹æľĹ": 5809,
      "ç«ĭåį³": 5810,
      "æĺ¯åĲ¦ä¸º": 5811,
      "æ¸ħæĻ¨": 5812,
      "å½¢çĬ¶": 5813,
      "æł¹æį®æĤ¨çļĦ": 5814,
      "ä¸Ģç¯ĩæĸ°éĹ»æĬ¥éģĵ": 5815,
      "ç§ĳå¹»çĶµå½±": 5816,
      "ä¼ļå¯¼èĩ´": 5817,
      "æī®": 5818,
      "åįģäºĶ": 5819,
      "è¶ħçº§": 5820,
      "22": 5821,
      "ç®Ģä»ĭ": 5822,
      "é¥±": 5823,
      "åĽłä¸ºä»ĸä»¬": 5824,
      "èº«ä»½": 5825,
      "æĬķåħ¥": 5826,
      "é£ĺèĲ½": 5827,
      "åıĻ": 5828,
      "æĭĵ": 5829,
      "éŁ³é¢ĳ": 5830,
      "æİ¨èįĲåĲĹ": 5831,
      "æĪĳåı¯ä»¥ä¸ºæĤ¨æıĲä¾Ľ": 5832,
      "æıĲåīį": 5833,
      "è¿ĩæĿ¥": 5834,
      "å¤ªå¹³": 5835,
      "å±ķçİ°": 5836,
      "èģĬå¤©æľºåĻ¨äºº": 5837,
      "å°Ĩä¸ĭéĿ¢åı¥åŃĲç¿»è¯ĳæĪĲçİ°ä»£æĸĩ": 5838,
      "ä¼Ļ": 5839,
      "æĦıåĳ³": 5840,
      "èĪĴæľį": 5841,
      "å°Ĩç»Ļå®ļçļĦåı¥åŃĲ": 5842,
      "æĥ³çŁ¥éģĵ": 5843,
      "è¿Ĳè¡Į": 5844,
      "ä¿Ŀæļĸ": 5845,
      "ä¸ºç»Ļå®ļçļĦæĸĩæľ¬": 5846,
      "éĸĵ": 5847,
      "ç¬Ķè®°æľ¬": 5848,
      "æıĲéĹ®": 5849,
      "æĽ´ä¸º": 5850,
      "ç»Ļå®ļä¸Ģæ®µæĸĩåŃĹ": 5851,
      "æİĴåĲį": 5852,
      "æĶ¾æĿ¾èº«å¿ĥ": 5853,
      "æ¬º": 5854,
      "ä»İæľª": 5855,
      "å¦Ĥæŀľä½łåĸľæ¬¢": 5856,
      "çľŁæĺ¯å¤ª": 5857,
      "æĸĩä»¶": 5858,
      "å¸®æĪĳæĬĬè¿Ļåı¥è¯Ŀç¿»è¯ĳæĪĲæĸĩè¨Ģæĸĩ": 5859,
      "çľŁçļĦå¾Ī": 5860,
      "æģ¢å¤į": 5861,
      "ä¾¿å®ľ": 5862,
      "ä»¥åīį": 5863,
      "çİ«": 5864,
      "æĺ¨å¤©æĻļä¸Ĭ": 5865,
      "åī¯è¯į": 5866,
      "æ°´æŀľåĴĮ": 5867,
      "å½¼æŃ¤": 5868,
      "ç¥¥": 5869,
      "å¤´èĦĳ": 5870,
      "è¿ĺæľīä»Ģä¹Ī": 5871,
      "åħ´è¶£çĪ±å¥½": 5872,
      "éķ¿é¢Ī": 5873,
      "é²¨": 5874,
      "AIæĬĢæľ¯": 5875,
      "ç»Ħç»ĩæľºæŀĦ": 5876,
      "ï¼īï¼Į": 5877,
      "éĺ¿çĶĺ": 5878,
      "åĴĸåķ¡åºĹ": 5879,
      "è¿ŁåĪ°äºĨ": 5880,
      "ä¸Ģä¸ªåįķè¯į": 5881,
      "èİº": 5882,
      "æľīä»Ģä¹Īæĸ¹æ³ķåı¯ä»¥": 5883,
      "åĸĦèī¯": 5884,
      "å°Ĩä¸ĭéĿ¢åı¥åŃĲç¿»è¯ĳæĪĲæĸĩè¨Ģæĸĩ": 5885,
      "æµ´": 5886,
      "åģļçļĦ": 5887,
      "åĨįç»ĻæĪĳ": 5888,
      "çĳ¶": 5889,
      "åº¦åĴĮ": 5890,
      "ä¿®æĶ¹ä»¥ä¸ĭåı¥åŃĲ": 5891,
      "ä¸įçĶ¨è°¢": 5892,
      "åı¯éĿł": 5893,
      "æİ©": 5894,
      "000": 5895,
      "ä½łèĥ½ä¸įèĥ½": 5896,
      "èī¯å¥½": 5897,
      "å¸Ĩ": 5898,
      "ä¼ĺæĥł": 5899,
      "åĴĮä½ł": 5900,
      "çİ°çĬ¶": 5901,
      "ç¬¼": 5902,
      "ä¹Łæľī": 5903,
      "è¯¦ç»Ĩä¿¡æģ¯": 5904,
      "å¯ĵ": 5905,
      "çīµ": 5906,
      "è¯·æ³¨æĦı": 5907,
      "åİĨç¨ĭ": 5908,
      "åĩıèĤ¥": 5909,
      "èıľèĤ´": 5910,
      "èµ°è¿Ľ": 5911,
      "éĩįåĨĻä¸ĭéĿ¢è¿Ļä¸ªåı¥åŃĲ": 5912,
      "çļĦåħ³ç³»": 5913,
      "ä½łåºĶè¯¥": 5914,
      "å¤§æķ°æį®": 5915,
      "ä¸İä¹ĭ": 5916,
      "ç»Ļåĩºä»¥ä¸ĭ": 5917,
      "çº¢æŁ¿": 5918,
      "çļĦç®ĢçŁŃ": 5919,
      "ä»ĸäºº": 5920,
      "åĨĻåĩº": 5921,
      "ä¸įåĨį": 5922,
      "æħİ": 5923,
      "äºĴåĬ¨": 5924,
      "å±Ī": 5925,
      "çī©çļĦ": 5926,
      "23": 5927,
      "åĽŀåĪ°": 5928,
      "è¥¿çº¢æŁ¿": 5929,
      "åħ¶ä»ĸçļĦ": 5930,
      "æī¹è¯Ħ": 5931,
      "ç¶ĵ": 5932,
      "è¿ĺæ²¡æľī": 5933,
      "ç¨įçŃī": 5934,
      "éķ¿é¢Īé¹¿": 5935,
      "åľ¨æĪĳ": 5936,
      "æĹħæ¸¸çļĦ": 5937,
      "ç»Īäºİ": 5938,
      "éĿŀå¸¸æĦŁè°¢ä½łçļĦ": 5939,
      "å±±æ°´": 5940,
      "å¦Ĥä½ķæıĲé«ĺ": 5941,
      "å¸¦ä¸Ĭ": 5942,
      "åĮ»åŃ¦å½±åĥı": 5943,
      "çĶµåĬ¨": 5944,
      "è¿Ļä¸ªçĶµå½±": 5945,
      "æĪĳä»¬çļĦçĶŁæ´»": 5946,
      "çªģçł´": 5947,
      "åĽ½çļĦ": 5948,
      "ä¸¦": 5949,
      "å¥Ķè·ĳ": 5950,
      "æŁı": 5951,
      "æĮĩçļĦæĺ¯": 5952,
      "æĸ¹éĿ¢çļĦåºĶçĶ¨": 5953,
      "è´Łè´£": 5954,
      "ä»ĸæŃ£åľ¨": 5955,
      "ðŁ": 5956,
      "ç»Ļåĩºä¸Ģåı¥è¯Ŀ": 5957,
      "è¿Ļåı¥è¯Ŀåľ¨": 5958,
      "çļĦæĹ¥åŃĲ": 5959,
      "ä»¥ä¸º": 5960,
      "ä½łæīĢåľ¨": 5961,
      "å±ķå¼Ģ": 5962,
      "åĲįç§°åĴĮ": 5963,
      "åİ»äºĨåħ¬åĽŃ": 5964,
      "çº·çº·": 5965,
      "çļĦä½ľèĢħ": 5966,
      "é¥®é£Łä¹łæĥ¯": 5967,
      "çĶ«": 5968,
      "è¯·ä½¿çĶ¨": 5969,
      "å¯¹ä»¥ä¸ĭæĸĩæľ¬": 5970,
      "å½ĵä½ł": 5971,
      "æľªèĥ½": 5972,
      "è¿Ļåı¥è¯Ŀåľ¨ä¸ŃåĽ½": 5973,
      "åĬŀæ³ķ": 5974,
      "åĳ¼åĲģ": 5975,
      "åľ¨æŃ¤ä»»åĬ¡ä¸Ń": 5976,
      "è¿Ļåı¥è¯Ŀåľ¨ä¸ŃåĽ½åı¤ä»£æĢİä¹Īè¯´": 5977,
      "çļĦçī¹çĤ¹": 5978,
      "æĭħå¿ĥ": 5979,
      "åĪ°çļĦ": 5980,
      "èµ·æºĲ": 5981,
      "æ¼ĶåĶ±": 5982,
      "æ±Ŀ": 5983,
      "æķħå®«": 5984,
      "æľīæķĪåľ°": 5985,
      "å¹¶ä½¿çĶ¨": 5986,
      "çĭĲ": 5987,
      "åĪļæīį": 5988,
      "åĿĽ": 5989,
      "åıįé¦Ī": 5990,
      "æĪĳä¸įåĸľæ¬¢": 5991,
      "éĽĨä¸Ń": 5992,
      "éĸĭ": 5993,
      "æ¾³å¤§åĪ©": 5994,
      "æ²ĥ": 5995,
      "åİ»è·ĳæŃ¥": 5996,
      "åı²å¯Ĩ": 5997,
      "è¼": 5998,
      "ç®Ń": 5999,
      "æķ°çļĦ": 6000,
      "éħ·": 6001,
      "æ½ľåľ¨": 6002,
      "åĴĮåºĶçĶ¨": 6003,
      "äºĭé¡¹": 6004,
      "å·¥ä½ľçļĦ": 6005,
      "ä¸Ģè¾Ĩ": 6006,
      "åħ½": 6007,
      "å°Ĩä»¥ä¸ĭæ®µèĲ½": 6008,
      "ç»Ļå®ļæĸĩæľ¬ä¸ŃçļĦ": 6009,
      "å¹´ä»½": 6010,
      "èĲĿ": 6011,
      "æµ·æµª": 6012,
      "ä¸ĭéĿ¢çļĦéĹ®é¢ĺ": 6013,
      "å¹¿æ³ĽåºĶçĶ¨": 6014,
      "çĶŁæĪĲä¸Ģé¦ĸè¯ĹæŃĮ": 6015,
      "éĺĲè¿°": 6016,
      "å¤¹": 6017,
      "çļ®èĤ¤": 6018,
      "åĴĮæ°´": 6019,
      "åĬłæĭ¿": 6020,
      "ä¸»é¢ĺåĴĮ": 6021,
      "éĺ²æŃ¢": 6022,
      "åħ¶å®ŀ": 6023,
      "æº¢": 6024,
      "æ¶ĪéĻ¤": 6025,
      "ä¹ĺåĿĲ": 6026,
      "äºĽä»Ģä¹Ī": 6027,
      "æĦŁäºº": 6028,
      "åģļä¸Ģä¸ª": 6029,
      "è¿Ļåı¥è¯Ŀåľ¨åı¤ä»£æĢİä¹Īè¯´": 6030,
      "çļĦåŁºæľ¬": 6031,
      "æĳĨ": 6032,
      "ä¹Ļ": 6033,
      "åĵĩ": 6034,
      "ä¸ĬåŃ¦": 6035,
      "å¤ıå¨ģ": 6036,
      "é¾Ł": 6037,
      "æ±īåŃĹ": 6038,
      "åĤį": 6039,
      "åı¤èĢģçļĦ": 6040,
      "æ¶µçĽĸ": 6041,
      "æ¾³å¤§åĪ©äºļ": 6042,
      "å¤ıå¨ģå¤·": 6043,
      "çļĦä¾ĭåŃĲ": 6044,
      "æľīå¤ļ": 6045,
      "èĩªèº«": 6046,
      "å£¤": 6047,
      "æĻ¯è§Ĥ": 6048,
      "å¹¿åľº": 6049,
      "çĭ¬èĩª": 6050,
      "åĲĮä¹īè¯įæĪĸ": 6051,
      "æĭħä»»": 6052,
      "ħåĬĽ": 6053,
      "åıĤåĬłäºĨ": 6054,
      "åľŁåľ°": 6055,
      "åĴĮå»ºè®®": 6056,
      "çĶ¨åĵģ": 6057,
      "åİŁæĦı": 6058,
      "åĦĴ": 6059,
      "å¹´è½»çļĦ": 6060,
      "çªĹæĪ·": 6061,
      "å¸ĥæĸ¯": 6062,
      "æĽ¿æį¢æĪĲ": 6063,
      "æī©å¤§": 6064,
      "åħĦå¼Ł": 6065,
      "é¥¥": 6066,
      "æ±ŁåįĹ": 6067,
      "åħ¹": 6068,
      "å·¾": 6069,
      "è¯Ńä¹ī": 6070,
      "ç®ĢåİĨ": 6071,
      "æ¯Ķäºļ": 6072,
      "åħ¨çĲĥæ°ĶåĢĻåıĺåĮĸ": 6073,
      "ç»´æĮģ": 6074,
      "åħģ": 6075,
      "ä¸įå°ĳ": 6076,
      "å®ŀçĶ¨": 6077,
      "åı²å¯Ĩæĸ¯": 6078,
      "60": 6079,
      "åĸľæ¬¢çļĦ": 6080,
      "ä¸Ģä¸ĭåĲĹ": 6081,
      "åĩĨç¡®çļĦ": 6082,
      "åĪĽéĢłä¸Ģä¸ª": 6083,
      "æĪª": 6084,
      "éĤ£è¯·ä½ł": 6085,
      "èĢĮå¼Ĥ": 6086,
      "è®©æ¨¡åŀĭ": 6087,
      "åłĨ": 6088,
      "çĪ¬å±±": 6089,
      "éĩİçĶŁåĬ¨çī©": 6090,
      "éĽĢ": 6091,
      "ä¸ŃçļĦè¯Ńæ³ķéĶĻè¯¯": 6092,
      "å¸®æĪĳæĬĬè¿Ļåı¥è¯Ŀç¿»è¯ĳæĪĲçİ°ä»£æĸĩ": 6093,
      "ä¸įç¡®å®ļ": 6094,
      "å¸¦æľī": 6095,
      "æķ£æĸĩ": 6096,
      "äººå·¥æĻºèĥ½çļĦåıĳå±ķ": 6097,
      "éĹľ": 6098,
      "è°Ĳ": 6099,
      "éĿŀå¸¸æ£Ĵ": 6100,
      "ç¥Ń": 6101,
      "æµģæµª": 6102,
      "æ£ķ": 6103,
      "åĲĳæĪĳ": 6104,
      "åįĹäº¬": 6105,
      "ä½¿åħ¶æĽ´æµģçķħ": 6106,
      "æĶ¯éĵħç¬Ķ": 6107,
      "æľĭåıĭä»¬": 6108,
      "èĻ¹": 6109,
      "çĽ¸åħ³çļĦæłĩé¢ĺ": 6110,
      "è¯Ńæ³ķåĴĮæĭ¼åĨĻ": 6111,
      "æĺŃ": 6112,
      "å®ı": 6113,
      "æĪĲåĳĺ": 6114,
      "çĻ½è¯Ŀ": 6115,
      "ä½łçļĦéĹ®é¢ĺ": 6116,
      "æĪĳä»¬çļĦåħ¬åı¸": 6117,
      "å®¶åĽŃ": 6118,
      "äºĮé¦ĸ": 6119,
      "ä¸¥æł¼": 6120,
      "çĩĥæĸĻ": 6121,
      "å®µ": 6122,
      "åı¯åı£": 6123,
      "èģĺ": 6124,
      "å¿ĥçĲĨåŃ¦": 6125,
      "ä¸ĭä¸ªæľĪ": 6126,
      "è¿Ļä¸ªè¯į": 6127,
      "éĢĤå®ľ": 6128,
      "äººç±»æĻºèĥ½": 6129,
      "æĥħåĨµä¸ĭ": 6130,
      "éķ¿åº¦ä¸º": 6131,
      "åĴı": 6132,
      "ä½ķæĹ¶": 6133,
      "é©°": 6134,
      "æ¯ıæ¬¡": 6135,
      "åĪ©æ¶¦": 6136,
      "æķĻæİĪ": 6137,
      "ä¸ªç³ĸæŀľ": 6138,
      "åı¤æĸĩ": 6139,
      "èĥĸ": 6140,
      "ç²¾åĩĨ": 6141,
      "èĭ¹æŀľåĴĮ": 6142,
      "åıĳçĶŁäºĨ": 6143,
      "çľĭåĪ°äºĨä¸Ģåıª": 6144,
      "åİ»æķ£æŃ¥": 6145,
      "ä½ĨæĪĳä»¬": 6146,
      "æ²»çĸĹæĸ¹æ¡Ī": 6147,
      "hon": 6148,
      "æĺİå¹´": 6149,
      "ç»Ļå®ļä¸¤ä¸ª": 6150,
      "æŃ£ä¼ł": 6151,
      "éļ¾å¿ĺ": 6152,
      "è§ĦèĮĥ": 6153,
      "å®ĺæĸ¹": 6154,
      "ç©ºæł¼": 6155,
      "æľīæĦıä¹īçļĦåı¥åŃĲ": 6156,
      "çī¹æľĹæĻ®": 6157,
      "åľ¨åĳ¨æľ«": 6158,
      "æĹ¥èĲ½": 6159,
      "æµģæĦŁ": 6160,
      "ç±»åŀĭçļĦçĶµå½±": 6161,
      "æĺ¾èĳĹ": 6162,
      "çĻ½è¯Ŀæĸĩ": 6163,
      "ä¾§": 6164,
      "å¤´åıĳ": 6165,
      "çĥŃéĩı": 6166,
      "é¹°": 6167,
      "æĺİäº®": 6168,
      "ä»Ģä¹Īç±»åŀĭçļĦ": 6169,
      "é¡Į": 6170,
      "æĺ¥å¤©çļĦ": 6171,
      "æĹ±": 6172,
      "è¿Ľè¡ĮæĥħæĦŁåĪĨæŀĲ": 6173,
      "æĭ¥åłµ": 6174,
      "æŁĶè½¯": 6175,
      "å¥¥æĸ¯åį¡": 6176,
      "å°ĸ": 6177,
      "å¤©æ°Ķä¿¡æģ¯": 6178,
      "æĢ§åĪ«": 6179,
      "è¡¨çİ°åĩºèī²": 6180,
      "åľ¨åŃ¦æł¡": 6181,
      "æµ¸": 6182,
      "åıĺéĿ©": 6183,
      "æ¸ħåĩī": 6184,
      "èĩ³åħ³": 6185,
      "æĩī": 6186,
      "æĪĴ": 6187,
      "å°Ĩä¸ĭåĪĹåı¥åŃĲ": 6188,
      "éľį": 6189,
      "çıĬ": 6190,
      "ç¿»è¯ĳæĪĲçĻ½è¯Ŀæĸĩ": 6191,
      "æµģè¡ĮçļĦ": 6192,
      "ä¸ºä¸Ģç¯ĩåħ³äºİ": 6193,
      "éĤĢè¯·": 6194,
      "ä½¿å®ĥæĽ´åĬł": 6195,
      "éĩįåĨĻæĪĲ": 6196,
      "ä¼Łå¤§çļĦ": 6197,
      "çľĭä¹¦": 6198,
      "èľľèľĤ": 6199,
      "è¿ĺåī©ä¸ĭ": 6200,
      "è¸¢": 6201,
      "ä¼ļä¸ĭéĽ¨": 6202,
      "è´¼": 6203,
      "å¤±åİ»": 6204,
      "ç®ĢåįķæĺĵæĩĤ": 6205,
      "æ³¨æĦıåĬĽ": 6206,
      "æĿ¥æııè¿°": 6207,
      "åĲİæĿ¥": 6208,
      "çİ«çĳ°": 6209,
      "éĤ£æĪĳ": 6210,
      "èµĦéĩĳ": 6211,
      "åįıåĬ©": 6212,
      "èµ«": 6213,
      "è¿Ľè¡ĮäºĨ": 6214,
      "æĶ¹æĪĲ": 6215,
      "æ¶Ĥ": 6216,
      "å°½éĩı": 6217,
      "ç³ĸå°¿": 6218,
      "é¬ĵ": 6219,
      "ç³ĸå°¿çĹħ": 6220,
      "å¤§æµ·": 6221,
      "å¾Īé«ĺ": 6222,
      "åĨĻè¯ĹåĲĹ": 6223,
      "ä½łèĥ½å¸®æĪĳåĨĻè¯ĹåĲĹ": 6224,
      "åŃĲéĩĮ": 6225,
      "å»ī": 6226,
      "å°ģéĹŃ": 6227,
      "æĺ¨å¤©æĪĳ": 6228,
      "åĨĽäºĭ": 6229,
      "çļĦè¯į": 6230,
      "ä»¥ç¡®ä¿Ŀ": 6231,
      "åĴĮè¯Ńæ³ķéĶĻè¯¯": 6232,
      "å°Ĩä¸ĭåĪĹ": 6233,
      "ä¹¦åºĹ": 6234,
      "åģļé¥Ń": 6235,
      "åĨįæĿ¥": 6236,
      "éĩįæĸ°åĨĻä¸ĭ": 6237,
      "å¹ħçĶ»": 6238,
      "çļĦçİ¯å¢ĥ": 6239,
      "åİ»è¶ħå¸Ĥ": 6240,
      "ä½Ĩä»ĸçļĦ": 6241,
      "åıĺä¸º": 6242,
      "éĩıåŃĲ": 6243,
      "æ¹ĺ": 6244,
      "ç²¾ç¡®": 6245,
      "å°ļä¹¦": 6246,
      "èį¯çī©çłĶåıĳ": 6247,
      "æĪĳæīĢ": 6248,
      "ç¼ĸåĨĻä¸Ģä¸ªæłĩé¢ĺ": 6249,
      "éĻįä½İæĤ£": 6250,
      "èŃ¦å¯Ł": 6251,
      "\"ãĢĤ": 6252,
      "ç¾İæ´²": 6253,
      "çļĦä¸»é¢ĺæĺ¯": 6254,
      "æĪĳæĺİå¤©": 6255,
      "éĻĮ": 6256,
      "æµ·å²¸": 6257,
      "é©»": 6258,
      "æķĻå¸Ī": 6259,
      "æĢ»ç»ĵä¸ºä¸Ģåı¥è¯Ŀ": 6260,
      "åĽłæŃ¤æĹłæ³ķ": 6261,
      "è´ŁéĿ¢æĪĸä¸ŃæĢ§": 6262,
      "åĤ²": 6263,
      "çĻ»å±±": 6264,
      "éĤª": 6265,
      "èĢĮæĺ¯": 6266,
      "åįĪé¤Ĳ": 6267,
      "èĮĥåĽ´åĨħ": 6268,
      "æķĻåŃ¦": 6269,
      "æĪĳåıª": 6270,
      "çľĭçĿĢ": 6271,
      "ç¦ħ": 6272,
      "çħ§é¡¾": 6273,
      "æľįåĬ¡åĳĺ": 6274,
      "è®©æĪĳæĦŁåĪ°": 6275,
      "èĬĤçº¦èĥ½æºĲ": 6276,
      "ĠæĪĳä»¬": 6277,
      "çļĦæĮĳæĪĺ": 6278,
      "æĺŁæľŁäºĶ": 6279,
      "éĺ¿çĶĺæŃ£ä¼ł": 6280,
      "è°ģæĺ¯": 6281,
      "çļĦæŃĮè¯į": 6282,
      "çķı": 6283,
      "èĢģæĿ¿": 6284,
      "åĲĪå¹¶æĪĲä¸Ģä¸ªåı¥åŃĲ": 6285,
      "æķĪçİĩåĴĮ": 6286,
      "çĽĳæµĭ": 6287,
      "å±ıå¹ķ": 6288,
      "ç»ĻäºĪ": 6289,
      "åı¯ä»¥ä½¿çĶ¨": 6290,
      "ç»Ļå®ļä»¥ä¸ĭ": 6291,
      "è°¨": 6292,
      "èĪĮ": 6293,
      "æĺŁéĻħ": 6294,
      "ä»ĸä»¬æŃ£åľ¨": 6295,
      "è¿Ļä¸ªéĹ®é¢ĺçļĦçŃĶæ¡Ī": 6296,
      "è¡Ĺéģĵ": 6297,
      "æ°§æ°Ķ": 6298,
      "åŁ¹åħ»": 6299,
      "çļĦæķ°éĩı": 6300,
      "ä¿±": 6301,
      "çŃīäºİ": 6302,
      "æıĲåıĸæĸĩç«łä¸Ń": 6303,
      "çħİ": 6304,
      "26": 6305,
      "ä»İæĿ¥": 6306,
      "ä¸»é¢ĺä¸º": 6307,
      "çº¢åı¶": 6308,
      "è¿Ļä¸¤ä¸ªåı¥åŃĲ": 6309,
      "åİ»æ¸¸æ³³": 6310,
      "æł¹æį®å¼Ģå¤´": 6311,
      "æĦıå¤ĸ": 6312,
      "è¿Ļç¯ĩæĸĩç«łçļĦåħ³éĶ®ä¿¡æģ¯": 6313,
      "æĮ¤": 6314,
      "éĽ¨ä¼ŀ": 6315,
      "åĩıåİĭ": 6316,
      "åĶ¤": 6317,
      "æīįåįİ": 6318,
      "ç§ĳæĬĢçļĦ": 6319,
      "å¤±ä¸ļ": 6320,
      "æĸĩè¨Ģæĸĩç¿»è¯ĳ": 6321,
      "åıĳçĶŁçļĦ": 6322,
      "æĴŀ": 6323,
      "æĪĳæĹłæ³ķåĽŀçŃĶè¿Ļä¸ªéĹ®é¢ĺ": 6324,
      "çļĦé¦ĸéĥ½æĺ¯": 6325,
      "å®īè£ħ": 6326,
      "ä½įäºİåĸľé©¬æĭīéĽħå±±èĦī": 6327,
      "ä¾£": 6328,
      "æľĢèĳĹåĲįçļĦ": 6329,
      "åĪĨæĪĲ": 6330,
      "æ´»åĬĽ": 6331,
      "è¿Ļéĥ¨": 6332,
      "äº¤äºĴ": 6333,
      "ä¹Ķå¸ĥæĸ¯": 6334,
      "ä¹¾": 6335,
      "æĻĸ": 6336,
      "æĭ¯": 6337,
      "æĺİå¤©çļĦå¤©æ°Ķé¢ĦæĬ¥": 6338,
      "çĶ¨ä¸Ģåı¥è¯Ŀæ¦Ĥæĭ¬": 6339,
      "å®ľäºº": 6340,
      "çļĦè¡¨è¾¾æĸ¹å¼ı": 6341,
      "å·¥æķ´": 6342,
      "è¿Ľè¡ĮéĩįåĨĻ": 6343,
      "æł¹æį®æīĢç»Ļ": 6344,
      "ä»¥åĨħ": 6345,
      "éĽķ": 6346,
      "æ²¡æľīæĭ¼åĨĻéĶĻè¯¯": 6347,
      "é»Ħæĺı": 6348,
      "æ©Ł": 6349,
      "åħ®": 6350,
      "çĽĨ": 6351,
      "åĳ½ä»¤": 6352,
      "è¿Ļç¯ĩè®ºæĸĩ": 6353,
      "æľĢéķ¿": 6354,
      "æ¯ıåĳ¨": 6355,
      "åı¯èĥ½æĢ§": 6356,
      "çļĦæ°´": 6357,
      "å¯¹ä¸Ĭè¿°æĸĩæľ¬è¿Ľè¡ĮçºłéĶĻ": 6358,
      "çĲĨæĥ³": 6359,
      "å¯¹ä¸Ĭè¿°æĸĩæľ¬è¿Ľè¡ĮçºłéĶĻåĲİçļĦç»ĵæŀľ": 6360,
      "å¥Ī": 6361,
      "å·¢": 6362,
      "ä½łæľī": 6363,
      "æł¹æį®ä¸Ĭæĸĩ": 6364,
      "æĪĳæĥ³äºĨè§£": 6365,
      "éĢīæĭ©ä¸Ģä¸ª": 6366,
      "è¯ģæĺİ": 6367,
      "çļĦä¸ľè¥¿": 6368,
      "ä¸Ńåįİ": 6369,
      "éĵģå¡Ķ": 6370,
      "åį±æľº": 6371,
      "èģĶåĲĪåĽ½": 6372,
      "ä¸Ģåı°": 6373,
      "åľ¨æłĳ": 6374,
      "å¯¹æīĭ": 6375,
      "æĦŁçŁ¥": 6376,
      "æł¹æį®ä»¥ä¸ĭåı¥åŃĲ": 6377,
      "çĽ¸åħ³çļĦä¿¡æģ¯": 6378,
      "ä»Ĺå·¥æķ´": 6379,
      "è¦ģæ±Ĥå¯¹ä»Ĺå·¥æķ´": 6380,
      "è±ļ": 6381,
      "éĢĤå½ĵçļĦæłĩé¢ĺ": 6382,
      "é¡¾å®¢": 6383,
      "åįļå®¢æĸĩç«ł": 6384,
      "åĴĮç¤¾ä¼ļ": 6385,
      "è¡Įè¯Ĺ": 6386,
      "èıĩ": 6387,
      "æĶ¶éĽĨ": 6388,
      "æ´ĭèĳ±": 6389,
      "æľīå®³": 6390,
      "çĶŁæĪĲä¸Ģç¯ĩ": 6391,
      "æĢĿç»ª": 6392,
      "éĵ¶æ²³": 6393,
      "å¤§åĨĻåŃĹæ¯į": 6394,
      "çļĦè¯įè¯Ń": 6395,
      "ç»½": 6396,
      "çģµæ´»": 6397,
      "èĶ¬èıľåĴĮ": 6398,
      "å®ĮæĪĲä»»åĬ¡": 6399
    },
    "merges": [
      [
        "ä",
        "¸"
      ],
      [
        "ï",
        "¼"
      ],
      [
        "ã",
        "Ģ"
      ],
      [
        "ãĢ",
        "Ĥ"
      ],
      [
        "ï¼",
        "Į"
      ],
      [
        "ç",
        "ļ"
      ],
      [
        "çļ",
        "Ħ"
      ],
      [
        "i",
        "m"
      ],
      [
        "<",
        "|"
      ],
      [
        "|",
        ">"
      ],
      [
        "ä",
        "»"
      ],
      [
        "å",
        "ı"
      ],
      [
        "ä",
        "º"
      ],
      [
        "è",
        "¯"
      ],
      [
        "æ",
        "ľ"
      ],
      [
        "æ",
        "Ī"
      ],
      [
        "a",
        "r"
      ],
      [
        "e",
        "n"
      ],
      [
        "s",
        "t"
      ],
      [
        "ar",
        "t"
      ],
      [
        "en",
        "d"
      ],
      [
        "st",
        "art"
      ],
      [
        "æ",
        "ĸ"
      ],
      [
        "è",
        "¿"
      ],
      [
        "å",
        "¤"
      ],
      [
        "ä¸",
        "Ģ"
      ],
      [
        "å",
        "ħ"
      ],
      [
        "ä",
        "½"
      ],
      [
        "æ",
        "ĺ"
      ],
      [
        "Ġ",
        "<|"
      ],
      [
        "å",
        "®"
      ],
      [
        "ãĢĤ",
        "<|"
      ],
      [
        "å",
        "Ĳ"
      ],
      [
        "å",
        "Ń"
      ],
      [
        "ç",
        "Ķ"
      ],
      [
        "å",
        "ľ"
      ],
      [
        "å",
        "Ī"
      ],
      [
        "ä",
        "¹"
      ],
      [
        "æĪ",
        "ĳ"
      ],
      [
        "ç",
        "»"
      ],
      [
        "ï¼",
        "ļ"
      ],
      [
        "ä¸",
        "ª"
      ],
      [
        "æĺ",
        "¯"
      ],
      [
        "æĸ",
        "ĩ"
      ],
      [
        "å",
        "Ĭ"
      ],
      [
        "å",
        "°"
      ],
      [
        "ãĢ",
        "ģ"
      ],
      [
        "ä»",
        "¥"
      ],
      [
        "å",
        "Ĵ"
      ],
      [
        "åĴ",
        "Į"
      ],
      [
        "æľ",
        "ī"
      ],
      [
        "æ",
        "Ĺ"
      ],
      [
        "åľ",
        "¨"
      ],
      [
        "å",
        "Ĩ"
      ],
      [
        "ä¸",
        "Ń"
      ],
      [
        "å",
        "Ľ"
      ],
      [
        "è¿",
        "Ļ"
      ],
      [
        "å",
        "ĩ"
      ],
      [
        "è",
        "®"
      ],
      [
        "äº",
        "Ĩ"
      ],
      [
        "åı",
        "¥"
      ],
      [
        "å",
        "¸"
      ],
      [
        "é",
        "¢"
      ],
      [
        "äº",
        "º"
      ],
      [
        "åŃ",
        "Ĳ"
      ],
      [
        "ä¸",
        "ĭ"
      ],
      [
        "é",
        "ĩ"
      ],
      [
        "ä¸",
        "º"
      ],
      [
        "å",
        "¥"
      ],
      [
        "æ",
        "ı"
      ],
      [
        "ĥ",
        "½"
      ],
      [
        "å",
        "¾"
      ],
      [
        "é",
        "Ĺ"
      ],
      [
        "å",
        "º"
      ],
      [
        "è",
        "¡"
      ],
      [
        "æ",
        "ł"
      ],
      [
        "å",
        "¹"
      ],
      [
        "å",
        "į"
      ],
      [
        "æ",
        "Ŀ"
      ],
      [
        "â",
        "Ģ"
      ],
      [
        "ä¸Ģ",
        "ä¸ª"
      ],
      [
        "ä",
        "¼"
      ],
      [
        "å",
        "½"
      ],
      [
        "è",
        "¦"
      ],
      [
        "ä¸",
        "į"
      ],
      [
        "å¤",
        "©"
      ],
      [
        "è¦",
        "ģ"
      ],
      [
        "å",
        "·"
      ],
      [
        "æĪ",
        "Ĳ"
      ],
      [
        "æı",
        "Ĳ"
      ],
      [
        "æ",
        "Ń"
      ],
      [
        "æ",
        "ī"
      ],
      [
        "è",
        "ĥ½"
      ],
      [
        "å",
        "Į"
      ],
      [
        "æ",
        "°"
      ],
      [
        "å",
        "İ"
      ],
      [
        "é",
        "Ģ"
      ],
      [
        "é",
        "Ŀ"
      ],
      [
        "åı",
        "¯"
      ],
      [
        "åı¥",
        "åŃĲ"
      ],
      [
        "ç",
        "«"
      ],
      [
        "ç",
        "İ"
      ],
      [
        "åĩ",
        "º"
      ],
      [
        "æ",
        "Ģ"
      ],
      [
        "æľ",
        "¬"
      ],
      [
        "æ",
        "Ĭ"
      ],
      [
        "çĶ",
        "Ł"
      ],
      [
        "å",
        "¯"
      ],
      [
        "æ",
        "ĥ"
      ],
      [
        "ç",
        "ī"
      ],
      [
        "ç",
        "§"
      ],
      [
        "ï¼",
        "Ł"
      ],
      [
        "æ",
        "Ľ"
      ],
      [
        "é¢",
        "ĺ"
      ],
      [
        "è",
        "§"
      ],
      [
        "æ",
        "Ħ"
      ],
      [
        "æ",
        "ķ"
      ],
      [
        "å",
        "¼"
      ],
      [
        "ç",
        "Ń"
      ],
      [
        "æ",
        "ŀ"
      ],
      [
        "æ",
        "Ļ"
      ],
      [
        "ä",
        "¿"
      ],
      [
        "ç»",
        "Ļ"
      ],
      [
        "ç",
        "Ľ"
      ],
      [
        "ä»",
        "ĸ"
      ],
      [
        "æ",
        "³"
      ],
      [
        "ä½",
        "ł"
      ],
      [
        "å",
        "ĳ"
      ],
      [
        "å¥",
        "½"
      ],
      [
        "å",
        "ĵ"
      ],
      [
        "çĶ",
        "¨"
      ],
      [
        "ä»",
        "¬"
      ],
      [
        "ä¸",
        "Ĭ"
      ],
      [
        "å®",
        "ļ"
      ],
      [
        "è",
        "Ģ"
      ],
      [
        "è¯",
        "·"
      ],
      [
        "è¡",
        "Į"
      ],
      [
        "ä",
        "¾"
      ],
      [
        "ç«",
        "ł"
      ],
      [
        "è¯",
        "į"
      ],
      [
        "è¯",
        "Ń"
      ],
      [
        "å",
        "¿"
      ],
      [
        "æ",
        "Ķ"
      ],
      [
        "åĨ",
        "Ļ"
      ],
      [
        "æĸĩ",
        "ç«ł"
      ],
      [
        "åħ",
        "¶"
      ],
      [
        "åħ",
        "³"
      ],
      [
        "è",
        "¾"
      ],
      [
        "æĸĩ",
        "æľ¬"
      ],
      [
        "æ",
        "µ"
      ],
      [
        "æĽ",
        "´"
      ],
      [
        "æ",
        "į"
      ],
      [
        "ç",
        "®"
      ],
      [
        "æ",
        "ĭ"
      ],
      [
        "æ",
        "Ĥ"
      ],
      [
        "äº",
        "İ"
      ],
      [
        "åĪ",
        "°"
      ],
      [
        "æĿ",
        "¥"
      ],
      [
        "åı¯",
        "ä»¥"
      ],
      [
        "é",
        "£"
      ],
      [
        "æ",
        "¬"
      ],
      [
        "æ",
        "İ"
      ],
      [
        "ç",
        "Ĳ"
      ],
      [
        "éĹ",
        "®"
      ],
      [
        "ä»¥",
        "ä¸ĭ"
      ],
      [
        "è",
        "ĩ"
      ],
      [
        "æĸ",
        "°"
      ],
      [
        "é",
        "Ķ"
      ],
      [
        "¦",
        "Ĥ"
      ],
      [
        "è",
        "µ"
      ],
      [
        "æ",
        "²"
      ],
      [
        "æ",
        "¸"
      ],
      [
        "å°",
        "Ĩ"
      ],
      [
        "ç",
        "º"
      ],
      [
        "æ°",
        "Ķ"
      ],
      [
        "åŃ",
        "¦"
      ],
      [
        "æĹ",
        "¶"
      ],
      [
        "æľ",
        "Ģ"
      ],
      [
        "å",
        "±"
      ],
      [
        "ç",
        "ľ"
      ],
      [
        "åľ",
        "°"
      ],
      [
        "å",
        "ĸ"
      ],
      [
        "âĢ",
        "Ŀ"
      ],
      [
        "æ",
        "´"
      ],
      [
        "æ",
        "¯"
      ],
      [
        "å¤",
        "§"
      ],
      [
        "å¾",
        "Ī"
      ],
      [
        "ä½",
        "¿"
      ],
      [
        "åı",
        "ĸ"
      ],
      [
        "ä¹",
        "Ī"
      ],
      [
        "æĤ",
        "¨"
      ],
      [
        "éĩ",
        "į"
      ],
      [
        "éĿ",
        "¢"
      ],
      [
        "ä¼",
        "ļ"
      ],
      [
        "å¯",
        "¹"
      ],
      [
        "æį",
        "®"
      ],
      [
        "è",
        "´"
      ],
      [
        "ç",
        "Ł"
      ],
      [
        "å¤",
        "ļ"
      ],
      [
        "æ",
        "±"
      ],
      [
        "å",
        "¦Ĥ"
      ],
      [
        "ç",
        "Ĥ"
      ],
      [
        "æ³",
        "ķ"
      ],
      [
        "é",
        "ľ"
      ],
      [
        "âĢ",
        "ľ"
      ],
      [
        "æĺ",
        "İ"
      ],
      [
        "æ",
        "Į"
      ],
      [
        "åĬ",
        "¨"
      ],
      [
        "ç",
        "±"
      ],
      [
        "çĶ",
        "µ"
      ],
      [
        "ä½",
        "ĵ"
      ],
      [
        "å¹",
        "¶"
      ],
      [
        "çī",
        "©"
      ],
      [
        "å·",
        "¥"
      ],
      [
        "ä½",
        "ľ"
      ],
      [
        "å",
        "ģ"
      ],
      [
        "å½",
        "±"
      ],
      [
        "åİ",
        "»"
      ],
      [
        "åĲ",
        "į"
      ],
      [
        "ç",
        "Ħ"
      ],
      [
        "é",
        "Ļ"
      ],
      [
        "è¿",
        "Ľ"
      ],
      [
        "æĥ",
        "ħ"
      ],
      [
        "åĪ",
        "Ĩ"
      ],
      [
        "å¸",
        "¸"
      ],
      [
        "å",
        "Ł"
      ],
      [
        "åĬ",
        "ł"
      ],
      [
        "èĩ",
        "ª"
      ],
      [
        "é",
        "ĺ"
      ],
      [
        "ä¾",
        "Ľ"
      ],
      [
        "äº",
        "Ľ"
      ],
      [
        "ç",
        "¯"
      ],
      [
        "ç»Ļ",
        "å®ļ"
      ],
      [
        "ä¸",
        "»"
      ],
      [
        "æĸ",
        "¹"
      ],
      [
        "é",
        "ģ"
      ],
      [
        "å®",
        "¶"
      ],
      [
        "æ",
        "ģ"
      ],
      [
        "åı",
        "ĳ"
      ],
      [
        "æıĲ",
        "ä¾Ľ"
      ],
      [
        "å°",
        "ı"
      ],
      [
        "åĽ",
        "½"
      ],
      [
        "è",
        "½"
      ],
      [
        "çİ",
        "°"
      ],
      [
        "çĦ",
        "¶"
      ],
      [
        "éĹ®",
        "é¢ĺ"
      ],
      [
        "è",
        "°"
      ],
      [
        "æł",
        "¹"
      ],
      [
        "åĸ",
        "ľ"
      ],
      [
        "ç±",
        "»"
      ],
      [
        "ç¯",
        "ĩ"
      ],
      [
        "å®",
        "ĥ"
      ],
      [
        "ä»",
        "Ģ"
      ],
      [
        "éľ",
        "Ģ"
      ],
      [
        "è",
        "ī"
      ],
      [
        "æĦ",
        "Ł"
      ],
      [
        "æ¬",
        "¢"
      ],
      [
        "è¿Ļ",
        "ä¸ª"
      ],
      [
        "ä»Ģ",
        "ä¹Ī"
      ],
      [
        "é",
        "«"
      ],
      [
        "æŀ",
        "ľ"
      ],
      [
        "çŃ",
        "ī"
      ],
      [
        "ç",
        "¾"
      ],
      [
        "è",
        "¶"
      ],
      [
        "æł¹",
        "æį®"
      ],
      [
        "è¯",
        "Ŀ"
      ],
      [
        "é«",
        "ĺ"
      ],
      [
        "è",
        "Ĭ"
      ],
      [
        "æĦ",
        "ı"
      ],
      [
        "ä»",
        "İ"
      ],
      [
        "æŃ",
        "£"
      ],
      [
        "æĪ",
        "ĸ"
      ],
      [
        "çĤ",
        "¹"
      ],
      [
        "å",
        "ī"
      ],
      [
        "æī",
        "Ģ"
      ],
      [
        "è¿",
        "ĩ"
      ],
      [
        "çĶŁ",
        "æĪĲ"
      ],
      [
        "åħ",
        "¬"
      ],
      [
        "åĲ",
        "Į"
      ],
      [
        "ç®",
        "Ģ"
      ],
      [
        "åº",
        "Ķ"
      ],
      [
        "åĽ",
        "ł"
      ],
      [
        "ä½",
        "Ĩ"
      ],
      [
        "æĪĳ",
        "ä»¬"
      ],
      [
        "ä¿",
        "Ŀ"
      ],
      [
        "å¾",
        "Ĺ"
      ],
      [
        "çŃ",
        "Ķ"
      ],
      [
        "å®",
        "ŀ"
      ],
      [
        "éľĢ",
        "è¦ģ"
      ],
      [
        "æĻ",
        "º"
      ],
      [
        "é",
        "¦"
      ],
      [
        "åĸľ",
        "æ¬¢"
      ],
      [
        "åĬ",
        "Ľ"
      ],
      [
        "çĲ",
        "Ĩ"
      ],
      [
        "éĩ",
        "Į"
      ],
      [
        "ç",
        "©"
      ],
      [
        "çľ",
        "ĭ"
      ],
      [
        "çĽ",
        "¸"
      ],
      [
        "é",
        "Ĥ"
      ],
      [
        "åį",
        "ķ"
      ],
      [
        "ä¹",
        "ĭ"
      ],
      [
        "æł",
        "ĩ"
      ],
      [
        "æĥ",
        "³"
      ],
      [
        "æ",
        "Ł"
      ],
      [
        "é",
        "Ľ"
      ],
      [
        "ç",
        "¼"
      ],
      [
        "æ",
        "®"
      ],
      [
        "å¹",
        "´"
      ],
      [
        "æľ",
        "º"
      ],
      [
        "æıĲ",
        "åıĸ"
      ],
      [
        "ç¾",
        "İ"
      ],
      [
        "è¯",
        "Ĺ"
      ],
      [
        "éĿ",
        "ŀ"
      ],
      [
        "ä¸Ń",
        "çļĦ"
      ],
      [
        "é",
        "¡"
      ],
      [
        "è¿Ľ",
        "è¡Į"
      ],
      [
        "ä¿",
        "¡"
      ],
      [
        "æķ",
        "°"
      ],
      [
        "æĹ",
        "ł"
      ],
      [
        "ç",
        "¬"
      ],
      [
        "æĻº",
        "èĥ½"
      ],
      [
        "çĶµ",
        "å½±"
      ],
      [
        "å¤©",
        "æ°Ķ"
      ],
      [
        "æĶ",
        "¹"
      ],
      [
        "ç",
        "ĸ"
      ],
      [
        "è¿",
        "°"
      ],
      [
        "åŃ",
        "Ĺ"
      ],
      [
        "è¡",
        "¨"
      ],
      [
        "å½",
        "ĵ"
      ],
      [
        "å",
        "»"
      ],
      [
        "åº",
        "¦"
      ],
      [
        "æ",
        "¡"
      ],
      [
        "ç",
        "ķ"
      ],
      [
        "ç»",
        "ı"
      ],
      [
        "ç§",
        "į"
      ],
      [
        "å¿",
        "ĥ"
      ],
      [
        "æĢ",
        "§"
      ],
      [
        "è§",
        "£"
      ],
      [
        "èī",
        "²"
      ],
      [
        "éĹ",
        "´"
      ],
      [
        "äº",
        "ĭ"
      ],
      [
        "è",
        "Ĳ"
      ],
      [
        "è",
        "ģ"
      ],
      [
        "è",
        "ĭ"
      ],
      [
        "æģ",
        "¯"
      ],
      [
        "å",
        "Ģ"
      ],
      [
        "é£",
        "İ"
      ],
      [
        "æ®",
        "µ"
      ],
      [
        "åĵ",
        "ģ"
      ],
      [
        "åĽ",
        "ŀ"
      ],
      [
        "æ²",
        "¡"
      ],
      [
        "å¸",
        "Ĥ"
      ],
      [
        "åĮ",
        "ĸ"
      ],
      [
        "éĶ",
        "Ļ"
      ],
      [
        "æĹ",
        "¥"
      ],
      [
        "ä¹",
        "ī"
      ],
      [
        "è",
        "į"
      ],
      [
        "å¥½",
        "çļĦ"
      ],
      [
        "é",
        "ķ"
      ],
      [
        "éĿŀ",
        "å¸¸"
      ],
      [
        "è",
        "·"
      ],
      [
        "è",
        "¨"
      ],
      [
        "é",
        "ĥ"
      ],
      [
        "ç",
        "³"
      ],
      [
        "æĬ",
        "Ģ"
      ],
      [
        "è¯",
        "¥"
      ],
      [
        "åĲ",
        "İ"
      ],
      [
        "å",
        "¢"
      ],
      [
        "åĮ",
        "ħ"
      ],
      [
        "ä»¥ä¸ĭ",
        "åı¥åŃĲ"
      ],
      [
        "æ°",
        "´"
      ],
      [
        "ä»",
        "Ĭ"
      ],
      [
        "å»",
        "º"
      ],
      [
        "çĲ",
        "ĥ"
      ],
      [
        "æ¯",
        "Ķ"
      ],
      [
        "ç",
        "ĭ"
      ],
      [
        "å¸",
        "®"
      ],
      [
        "è¨",
        "Ģ"
      ],
      [
        "è",
        "Ĥ"
      ],
      [
        "åī",
        "į"
      ],
      [
        "ç¯ĩ",
        "æĸĩç«ł"
      ],
      [
        "ç",
        "Ŀ"
      ],
      [
        "é",
        "ļ"
      ],
      [
        "åĲ",
        "Ī"
      ],
      [
        "å",
        "ŀ"
      ],
      [
        "ç",
        "¨"
      ],
      [
        "ç",
        "½"
      ],
      [
        "å¼",
        "Ģ"
      ],
      [
        "èĢ",
        "ħ"
      ],
      [
        "éģ",
        "ĵ"
      ],
      [
        "è¿",
        "ĺ"
      ],
      [
        "ä¸",
        "¤"
      ],
      [
        "äºº",
        "å·¥"
      ],
      [
        "é",
        "ĥ½"
      ],
      [
        "ç»Ļå®ļ",
        "çļĦ"
      ],
      [
        "çİ",
        "¯"
      ],
      [
        "ç",
        "¡"
      ],
      [
        "éĤ",
        "£"
      ],
      [
        "ä¿¡",
        "æģ¯"
      ],
      [
        "äººå·¥",
        "æĻºèĥ½"
      ],
      [
        "ä¹",
        "ł"
      ],
      [
        "é£",
        "Ł"
      ],
      [
        "ãĢĤ",
        "âĢĿ"
      ],
      [
        "è¯",
        "´"
      ],
      [
        "ç",
        "¤"
      ],
      [
        "æ",
        "·"
      ],
      [
        "ç",
        "Ī"
      ],
      [
        "ä½",
        "ķ"
      ],
      [
        "éķ",
        "¿"
      ],
      [
        "åħ",
        "¥"
      ],
      [
        "æµ",
        "·"
      ],
      [
        "ç",
        "ĥ"
      ],
      [
        "ä¸",
        "ī"
      ],
      [
        "æ²¡",
        "æľī"
      ],
      [
        "éĢ",
        "ļ"
      ],
      [
        "å¤",
        "Ħ"
      ],
      [
        "åĲ",
        "Ĺ"
      ],
      [
        "ä½¿",
        "åħ¶"
      ],
      [
        "åħ",
        "·"
      ],
      [
        "ä¸",
        "İ"
      ],
      [
        "èµ",
        "·"
      ],
      [
        "ç",
        "Ļ"
      ],
      [
        "åĪ",
        "«"
      ],
      [
        "ç",
        "´"
      ],
      [
        "ä¹",
        "Ł"
      ],
      [
        "ç",
        "¿"
      ],
      [
        "ä¸Ģ",
        "äºĽ"
      ],
      [
        "åı¥",
        "è¯Ŀ"
      ],
      [
        "è",
        "Ļ"
      ],
      [
        "ç¡",
        "®"
      ],
      [
        "ä¸",
        "ļ"
      ],
      [
        "å®",
        "¹"
      ],
      [
        "åĨ",
        "ħ"
      ],
      [
        "èĢ",
        "Į"
      ],
      [
        "åı",
        "ĺ"
      ],
      [
        "åįķ",
        "è¯į"
      ],
      [
        "éĥ",
        "¨"
      ],
      [
        "å¥",
        "¹"
      ],
      [
        "æ¡",
        "Ī"
      ],
      [
        "ãĢ",
        "ĭ"
      ],
      [
        "ãĢ",
        "Ĭ"
      ],
      [
        "åĵ",
        "ª"
      ],
      [
        "å",
        "Ŀ"
      ],
      [
        "è®",
        "®"
      ],
      [
        "åħ",
        "¨"
      ],
      [
        "æ",
        "ĳ"
      ],
      [
        "æĭ",
        "¬"
      ],
      [
        "æĺ¯",
        "ä¸Ģ"
      ],
      [
        "æĢ",
        "Ŀ"
      ],
      [
        "ä¹",
        "¦"
      ],
      [
        "è",
        "¢"
      ],
      [
        "æİ",
        "¨"
      ],
      [
        "ç»",
        "ĵ"
      ],
      [
        "æłĩ",
        "é¢ĺ"
      ],
      [
        "æ´",
        "»"
      ],
      [
        "è®",
        "¡"
      ],
      [
        "è¿Ļ",
        "ç¯ĩæĸĩç«ł"
      ],
      [
        "çŁ",
        "¥"
      ],
      [
        "éĶ",
        "®"
      ],
      [
        "å¤",
        "ª"
      ],
      [
        "æ¸",
        "¸"
      ],
      [
        "é",
        "Ł"
      ],
      [
        "å",
        "ķ"
      ],
      [
        "åĳ",
        "Ĭ"
      ],
      [
        "çĽ",
        "®"
      ],
      [
        "åı",
        "¤"
      ],
      [
        "æ",
        "¶"
      ],
      [
        "æĽ´",
        "åĬł"
      ],
      [
        "ç¼",
        "ĸ"
      ],
      [
        "å±",
        "±"
      ],
      [
        "å¼",
        "ı"
      ],
      [
        "åħ³",
        "éĶ®"
      ],
      [
        "å",
        "§"
      ],
      [
        "ï¼",
        "ģ"
      ],
      [
        "è®",
        "©"
      ],
      [
        "æľ",
        "¯"
      ],
      [
        "å°",
        "ĳ"
      ],
      [
        "åŃ¦",
        "ä¹ł"
      ],
      [
        "ç§",
        "ĳ"
      ],
      [
        "æ",
        "¼"
      ],
      [
        "ä¹",
        "Ĳ"
      ],
      [
        "æı",
        "ı"
      ],
      [
        "çī",
        "¹"
      ],
      [
        "ä»",
        "£"
      ],
      [
        "éĢ",
        "ī"
      ],
      [
        "é",
        "¥"
      ],
      [
        "åĽł",
        "ä¸º"
      ],
      [
        "ç",
        "¥"
      ],
      [
        "åŀ",
        "ĭ"
      ],
      [
        "ç",
        "ł"
      ],
      [
        "æ±",
        "Ĥ"
      ],
      [
        "çŁ",
        "Ń"
      ],
      [
        "ç",
        "Ĺ"
      ],
      [
        "åĲ",
        "«"
      ],
      [
        "æ",
        "»"
      ],
      [
        "åŁ",
        "İ"
      ],
      [
        "è¿",
        "ĳ"
      ],
      [
        "ä»",
        "»"
      ],
      [
        "çļĦ",
        "åı¥åŃĲ"
      ],
      [
        "åħ³",
        "äºİ"
      ],
      [
        "åģ",
        "¥"
      ],
      [
        "ä»Ĭ",
        "å¤©"
      ],
      [
        "åİ",
        "Ł"
      ],
      [
        "ä½¿",
        "çĶ¨"
      ],
      [
        "ç¨",
        "ĭ"
      ],
      [
        "ï¼Ł",
        "<|"
      ],
      [
        "åĬ",
        "©"
      ],
      [
        "å°",
        "½"
      ],
      [
        "çĿ",
        "Ģ"
      ],
      [
        "è®",
        "º"
      ],
      [
        "è",
        "Ī"
      ],
      [
        "é",
        "©"
      ],
      [
        "åı",
        "¸"
      ],
      [
        "ç",
        "ģ"
      ],
      [
        "ç³",
        "»"
      ],
      [
        "æıı",
        "è¿°"
      ],
      [
        "æľ",
        "ª"
      ],
      [
        "åĬ",
        "¡"
      ],
      [
        "å",
        "£"
      ],
      [
        "æ",
        "¨"
      ],
      [
        "ä½",
        "į"
      ],
      [
        "æĢ",
        "»"
      ],
      [
        "éĩ",
        "ı"
      ],
      [
        "åľ",
        "º"
      ],
      [
        "æĸ",
        "Ń"
      ],
      [
        "é",
        "»"
      ],
      [
        "ä»",
        "¶"
      ],
      [
        "é",
        "¤"
      ],
      [
        "åĮ",
        "»"
      ],
      [
        "åĲ",
        "ĥ"
      ],
      [
        "åı",
        "ª"
      ],
      [
        "é¤",
        "Ĳ"
      ],
      [
        "ä¸",
        "ĸ"
      ],
      [
        "è",
        "İ"
      ],
      [
        "èĬ",
        "±"
      ],
      [
        "éĢ",
        "Ĥ"
      ],
      [
        "æµ",
        "ģ"
      ],
      [
        "è",
        "º"
      ],
      [
        "åĪ",
        "Ĺ"
      ],
      [
        "æĮ",
        "ģ"
      ],
      [
        "è¯",
        "¯"
      ],
      [
        "ç",
        "Į"
      ],
      [
        "æ¸",
        "ħ"
      ],
      [
        "ä¸ĭ",
        "éĿ¢"
      ],
      [
        "æŃ",
        "Į"
      ],
      [
        "é¦",
        "ĸ"
      ],
      [
        "å±",
        "ķ"
      ],
      [
        "æ´",
        "ģ"
      ],
      [
        "ä¸Ń",
        "æıĲåıĸ"
      ],
      [
        "æł",
        "¼"
      ],
      [
        "çĶŁæĪĲ",
        "ä¸Ģä¸ª"
      ],
      [
        "æŃ",
        "¤"
      ],
      [
        "è¾",
        "¾"
      ],
      [
        "æĬ",
        "¥"
      ],
      [
        "é¢",
        "Ħ"
      ],
      [
        "æĺ",
        "Ł"
      ],
      [
        "é¢",
        "Ĩ"
      ],
      [
        "æľ",
        "Ī"
      ],
      [
        "äº",
        "§"
      ],
      [
        "è¢",
        "«"
      ],
      [
        "è¾",
        "ĵ"
      ],
      [
        "å·",
        "²"
      ],
      [
        "éĩį",
        "åĨĻ"
      ],
      [
        "ç»",
        "Ń"
      ],
      [
        "ä¸»",
        "é¢ĺ"
      ],
      [
        "èº",
        "«"
      ],
      [
        "çĪ",
        "±"
      ],
      [
        "åħ¬",
        "åı¸"
      ],
      [
        "å¢",
        "ĥ"
      ],
      [
        "åºĶ",
        "çĶ¨"
      ],
      [
        "åı",
        "Ĭ"
      ],
      [
        "çŃĶ",
        "æ¡Ī"
      ],
      [
        "é",
        "ħ"
      ],
      [
        "æī",
        "ĭ"
      ],
      [
        "çĶ",
        "±"
      ],
      [
        "åĽŀ",
        "çŃĶ"
      ],
      [
        "ç©",
        "º"
      ],
      [
        "æŃ",
        "¥"
      ],
      [
        "æŀ",
        "ģ"
      ],
      [
        "éĶĻ",
        "è¯¯"
      ],
      [
        "è¯",
        "ķ"
      ],
      [
        "æī",
        "¾"
      ],
      [
        "å¤",
        "ĸ"
      ],
      [
        "èĲ",
        "½"
      ],
      [
        "è½",
        "¦"
      ],
      [
        "ä»ĸ",
        "ä»¬"
      ],
      [
        "æ¯",
        "ı"
      ],
      [
        "å®ŀ",
        "ä½ĵ"
      ],
      [
        "ç»Ļ",
        "åĩº"
      ],
      [
        "ä¸¤",
        "ä¸ª"
      ],
      [
        "é",
        "¸"
      ],
      [
        "æĮ",
        "ĩ"
      ],
      [
        "èĬ",
        "Ĥ"
      ],
      [
        "æĻ",
        "¯"
      ],
      [
        "æĺ¯",
        "ä»Ģä¹Ī"
      ],
      [
        "ç®",
        "¡"
      ],
      [
        "å",
        "Ļ"
      ],
      [
        "å°",
        "±"
      ],
      [
        "ç®Ģ",
        "æ´ģ"
      ],
      [
        "é¡",
        "¹"
      ],
      [
        "éŁ",
        "³"
      ],
      [
        "åĪ",
        "Ľ"
      ],
      [
        "å½",
        "¢"
      ],
      [
        "è",
        "ı"
      ],
      [
        "åĮħ",
        "æĭ¬"
      ],
      [
        "æľ",
        "Ł"
      ],
      [
        "åı",
        "Ĺ"
      ],
      [
        "æ¨",
        "¡"
      ],
      [
        "è¯",
        "Ĩ"
      ],
      [
        "å»º",
        "è®®"
      ],
      [
        "æĹ",
        "ħ"
      ],
      [
        "ä¸Ģ",
        "ä¸ĭ"
      ],
      [
        "åº",
        "·"
      ],
      [
        "è¯Ń",
        "è¨Ģ"
      ],
      [
        "åĻ",
        "¨"
      ],
      [
        "åĮ",
        "Ĺ"
      ],
      [
        "åĨ",
        "³"
      ],
      [
        "è¯",
        "ī"
      ],
      [
        "æ",
        "º"
      ],
      [
        "Â",
        "·"
      ],
      [
        "åģ",
        "ļ"
      ],
      [
        "åŁ",
        "Ł"
      ],
      [
        "è",
        "ĥ"
      ],
      [
        "è°",
        "¢"
      ],
      [
        "åĪ",
        "¶"
      ],
      [
        "ç¿",
        "»"
      ],
      [
        "ç®",
        "Ĺ"
      ],
      [
        "éĹ",
        "»"
      ],
      [
        "æīĢ",
        "æľī"
      ],
      [
        "éĺ",
        "³"
      ],
      [
        "æĹ¶",
        "éĹ´"
      ],
      [
        "æĶ",
        "¾"
      ],
      [
        "æ¸",
        "©"
      ],
      [
        "åĪ",
        "©"
      ],
      [
        "æĬĢ",
        "æľ¯"
      ],
      [
        "ç»",
        "Ħ"
      ],
      [
        "é",
        "Ĵ"
      ],
      [
        "æĻ",
        "ļ"
      ],
      [
        "çķ",
        "Į"
      ],
      [
        "å¹",
        "³"
      ],
      [
        "äº",
        "¤"
      ],
      [
        "è",
        "Ħ"
      ],
      [
        "åĳĬ",
        "è¯ī"
      ],
      [
        "æ",
        "ļ"
      ],
      [
        "ãĢĤ",
        "\\"
      ],
      [
        "å¦Ĥ",
        "æŀľ"
      ],
      [
        "ç",
        "¦"
      ],
      [
        "å®",
        "Į"
      ],
      [
        "åģ¥",
        "åº·"
      ],
      [
        "åħ",
        "ī"
      ],
      [
        "çĭ",
        "Ĺ"
      ],
      [
        "è¯",
        "»"
      ],
      [
        "ï¼ļ",
        "âĢľ"
      ],
      [
        "ä¹",
        "°"
      ],
      [
        "è§",
        "Ĥ"
      ],
      [
        "æŁ",
        "¥"
      ],
      [
        "è",
        "¥"
      ],
      [
        "æł",
        "·"
      ],
      [
        "æĳ",
        "ĺ"
      ],
      [
        "è¯",
        "ĳ"
      ],
      [
        "äºĨ",
        "ä¸Ģ"
      ],
      [
        "é",
        "ª"
      ],
      [
        "ç»Ļ",
        "æĪĳ"
      ],
      [
        "å¿",
        "«"
      ],
      [
        "æĺ",
        "ĵ"
      ],
      [
        "é¢Ĩ",
        "åŁŁ"
      ],
      [
        "çĸ",
        "Ĺ"
      ],
      [
        "æ",
        "£"
      ],
      [
        "ç¿»",
        "è¯ĳ"
      ],
      [
        "åŁİ",
        "å¸Ĥ"
      ],
      [
        "åı¯",
        "èĥ½"
      ],
      [
        "å·¥",
        "ä½ľ"
      ],
      [
        "ç",
        "Ĭ"
      ],
      [
        "éĽ",
        "¨"
      ],
      [
        "æĹł",
        "æ³ķ"
      ],
      [
        "åĲ",
        "¦"
      ],
      [
        "å¦Ĥ",
        "ä½ķ"
      ],
      [
        "è¥",
        "¿"
      ],
      [
        "åĽ",
        "Ń"
      ],
      [
        "è¯",
        "Ħ"
      ],
      [
        "è",
        "±"
      ],
      [
        "ä¸»",
        "è¦ģ"
      ],
      [
        "æ",
        "¢"
      ],
      [
        "åİ",
        "Ĩ"
      ],
      [
        "çº",
        "¢"
      ],
      [
        "çº",
        "¦"
      ],
      [
        "åĩ",
        "ı"
      ],
      [
        "äº",
        "¬"
      ],
      [
        "å¸®",
        "åĬ©"
      ],
      [
        "åı",
        "·"
      ],
      [
        "æ·",
        "±"
      ],
      [
        "éĩ",
        "ĳ"
      ],
      [
        "ä¸Ń",
        "åĽ½"
      ],
      [
        "åĵ",
        "į"
      ],
      [
        "ç¬",
        "¬"
      ],
      [
        "æľ",
        "į"
      ],
      [
        "ãĢĤ",
        "\""
      ],
      [
        "çļĦ",
        "å¤©æ°Ķ"
      ],
      [
        "åŃ",
        "ĺ"
      ],
      [
        "åĳĬè¯ī",
        "æĪĳ"
      ],
      [
        "åı",
        "£"
      ],
      [
        "å®",
        "ī"
      ],
      [
        "åĨħ",
        "å®¹"
      ],
      [
        "æĺ¯",
        "ä¸Ģä¸ª"
      ],
      [
        "äº",
        "Ķ"
      ],
      [
        "æĥħ",
        "æĦŁ"
      ],
      [
        "çĹ",
        "ħ"
      ],
      [
        "çİ¯",
        "å¢ĥ"
      ],
      [
        "å",
        "²"
      ],
      [
        "æĪĳ",
        "çļĦ"
      ],
      [
        "ä¸ĸ",
        "çķĮ"
      ],
      [
        "åĳ",
        "ĺ"
      ],
      [
        "æ¬",
        "¡"
      ],
      [
        "åĩ",
        "ł"
      ],
      [
        "è®",
        "¾"
      ],
      [
        "è¿",
        "Ĳ"
      ],
      [
        "åį",
        "ģ"
      ],
      [
        "åħ³éĶ®",
        "è¯į"
      ],
      [
        "è¾",
        "ĳ"
      ],
      [
        "çİ°",
        "åľ¨"
      ],
      [
        "åĪĨ",
        "ç±»"
      ],
      [
        "åĳ",
        "¨"
      ],
      [
        "ä½¿åħ¶",
        "æĽ´åĬł"
      ],
      [
        "æĸ°",
        "éĹ»"
      ],
      [
        "è¶",
        "£"
      ],
      [
        "æį",
        "¢"
      ],
      [
        "å§",
        "ĭ"
      ],
      [
        "çľ",
        "Ł"
      ],
      [
        "åı¤",
        "è¯Ĺ"
      ],
      [
        "éĩį",
        "è¦ģ"
      ],
      [
        "åı",
        "²"
      ],
      [
        "åı",
        "ĭ"
      ],
      [
        "çĻ",
        "½"
      ],
      [
        "è¦ģ",
        "æ±Ĥ"
      ],
      [
        "å·",
        "±"
      ],
      [
        "åıĳ",
        "å±ķ"
      ],
      [
        "èı",
        "ľ"
      ],
      [
        "ç«",
        "ĭ"
      ],
      [
        "èĩª",
        "çĦ¶"
      ],
      [
        "å®ĥ",
        "ä»¬"
      ],
      [
        "ä¾",
        "ĭ"
      ],
      [
        "æĳĺ",
        "è¦ģ"
      ],
      [
        "åĮ",
        "º"
      ],
      [
        "å½±",
        "åĵį"
      ],
      [
        "ç",
        "²"
      ],
      [
        "è¯Ń",
        "æ³ķ"
      ],
      [
        "å",
        "Ķ"
      ],
      [
        "æķ°",
        "æį®"
      ],
      [
        "çİ¯",
        "ä¿Ŀ"
      ],
      [
        "é",
        "ĵ"
      ],
      [
        "æĦı",
        "æĢĿ"
      ],
      [
        "è§",
        "ī"
      ],
      [
        "äº",
        "Į"
      ],
      [
        "èģ",
        "Ķ"
      ],
      [
        "æķ",
        "ħ"
      ],
      [
        "ç§",
        "ĭ"
      ],
      [
        "æĬ",
        "Ĭ"
      ],
      [
        "èĩª",
        "å·±"
      ],
      [
        "ä¸Ģ",
        "æ®µ"
      ],
      [
        "åĲ",
        "ĳ"
      ],
      [
        "è§",
        "ģ"
      ],
      [
        "ç»",
        "Ł"
      ],
      [
        "æľĢ",
        "è¿ĳ"
      ],
      [
        "æĬ",
        "¤"
      ],
      [
        "åĢ",
        "Ļ"
      ],
      [
        "èį",
        "Ĳ"
      ],
      [
        "æĪ",
        "·"
      ],
      [
        "éĹ",
        "¨"
      ],
      [
        "åĲ",
        "¬"
      ],
      [
        "ç§",
        "°"
      ],
      [
        "ç",
        "ı"
      ],
      [
        "å¤",
        "´"
      ],
      [
        "äºº",
        "ç±»"
      ],
      [
        "æľª",
        "æĿ¥"
      ],
      [
        "æĺ",
        "¨"
      ],
      [
        "æł¹æį®",
        "ç»Ļå®ļçļĦ"
      ],
      [
        "æİ¨",
        "èįĲ"
      ],
      [
        "è´",
        "¨"
      ],
      [
        "æº",
        "Ĳ"
      ],
      [
        "æĹ",
        "©"
      ],
      [
        "ç½",
        "ĳ"
      ],
      [
        "åħ·",
        "ä½ĵ"
      ],
      [
        "åħ",
        "´"
      ],
      [
        "ä»",
        "·"
      ],
      [
        "ç¤",
        "¾"
      ],
      [
        "éļ",
        "¾"
      ],
      [
        "åĪ°",
        "äºĨ"
      ],
      [
        "ä¿",
        "®"
      ],
      [
        "ç",
        "ħ"
      ],
      [
        "å¤",
        "Ł"
      ],
      [
        "çĽ¸",
        "åħ³"
      ],
      [
        "åĩ",
        "Ĩ"
      ],
      [
        "çĮ",
        "«"
      ],
      [
        "å¸",
        "¦"
      ],
      [
        "æľ",
        "Ľ"
      ],
      [
        "æĪĳ",
        "æĥ³"
      ],
      [
        "çł",
        "Ķ"
      ],
      [
        "ä¼",
        "ł"
      ],
      [
        "ç¼ĸ",
        "è¾ĳ"
      ],
      [
        "ä½ł",
        "çļĦ"
      ],
      [
        "æİ",
        "Ĵ"
      ],
      [
        "ç¤",
        "º"
      ],
      [
        "ä¹ī",
        "è¯į"
      ],
      [
        "çĶŁ",
        "æ´»"
      ],
      [
        "è",
        "Į"
      ],
      [
        "æĺ",
        "¥"
      ],
      [
        "ä¸Ģ",
        "åı¥è¯Ŀ"
      ],
      [
        "æ¶",
        "Ī"
      ],
      [
        "å¤",
        "į"
      ],
      [
        "èĢ",
        "ĥ"
      ],
      [
        "åº",
        "ı"
      ],
      [
        "åħ",
        "ĭ"
      ],
      [
        "é©",
        "¬"
      ],
      [
        "èĢ",
        "ģ"
      ],
      [
        "åĬ¨",
        "çī©"
      ],
      [
        "åı",
        "į"
      ],
      [
        "å¯",
        "¼"
      ],
      [
        "æ¼",
        "Ķ"
      ],
      [
        "å¼",
        "º"
      ],
      [
        "å®",
        "¢"
      ],
      [
        "æĪĲ",
        "è¯Ń"
      ],
      [
        "è·",
        "¯"
      ],
      [
        "åį",
        "Ĺ"
      ],
      [
        "çĥ",
        "Ń"
      ],
      [
        "æī",
        "ĵ"
      ],
      [
        "æľº",
        "åĻ¨"
      ],
      [
        "æĶ¹",
        "åĨĻ"
      ],
      [
        "æķ",
        "Ī"
      ],
      [
        "åĳ",
        "³"
      ],
      [
        "äº",
        "ĳ"
      ],
      [
        "åĮĹ",
        "äº¬"
      ],
      [
        "è½",
        "¬"
      ],
      [
        "ä¸",
        "ľ"
      ],
      [
        "ç»Ń",
        "åĨĻ"
      ],
      [
        "åĬ",
        "Ł"
      ],
      [
        "åĨ",
        "į"
      ],
      [
        "åĪ",
        "¤"
      ],
      [
        "æī",
        "į"
      ],
      [
        "æ",
        "¦Ĥ"
      ],
      [
        "è¿Ļ",
        "åı¥è¯Ŀ"
      ],
      [
        "æĸ",
        "¯"
      ],
      [
        "è¾ĵ",
        "åħ¥"
      ],
      [
        "è®",
        "¤"
      ],
      [
        "è",
        "ĳ"
      ],
      [
        "å·²",
        "ç»ı"
      ],
      [
        "å¼",
        "ķ"
      ],
      [
        "å¤",
        "ı"
      ],
      [
        "åħ¶",
        "ä»ĸ"
      ],
      [
        "æĪ",
        "ĺ"
      ],
      [
        "ä¸",
        "Ķ"
      ],
      [
        "èĭ",
        "±"
      ],
      [
        "è¯·",
        "éĹ®"
      ],
      [
        "æ³",
        "¨"
      ],
      [
        "éĢ",
        "ł"
      ],
      [
        "å°½",
        "ç®¡"
      ],
      [
        "å¼",
        "ł"
      ],
      [
        "æĶ",
        "¿"
      ],
      [
        "æĭ",
        "©"
      ],
      [
        "çİ",
        "ĭ"
      ],
      [
        "ç©",
        "¶"
      ],
      [
        "ä¸į",
        "åĲĮ"
      ],
      [
        "éĢļ",
        "è¿ĩ"
      ],
      [
        "ä»",
        "½"
      ],
      [
        "å¾Ī",
        "å¤ļ"
      ],
      [
        "èµ",
        "Ľ"
      ],
      [
        "éĩį",
        "æĸ°"
      ],
      [
        "æĸ°",
        "çļĦ"
      ],
      [
        "ãĢĤâĢĿ",
        "<|"
      ],
      [
        "çŁ¥",
        "éģĵ"
      ],
      [
        "éĢī",
        "æĭ©"
      ],
      [
        "ç§",
        "¯"
      ],
      [
        "åĽ",
        "Ľ"
      ],
      [
        "è§",
        "Ĩ"
      ],
      [
        "æİ",
        "¥"
      ],
      [
        "åĮ»",
        "çĸĹ"
      ],
      [
        "å",
        "¡"
      ],
      [
        "åºĶ",
        "è¯¥"
      ],
      [
        "æĢ",
        "ģ"
      ],
      [
        "æķ",
        "Ļ"
      ],
      [
        "Ċ",
        "Ċ"
      ],
      [
        "åħ",
        "±"
      ],
      [
        "å",
        "ĥ"
      ],
      [
        "ç¿»è¯ĳ",
        "æĪĲ"
      ],
      [
        "èĭ",
        "¹"
      ],
      [
        "æĸ",
        "Ļ"
      ],
      [
        "æĺ¯",
        "åĲ¦"
      ],
      [
        "èĭ¹",
        "æŀľ"
      ],
      [
        "è¶",
        "³"
      ],
      [
        "è½",
        "»"
      ],
      [
        "åĳ",
        "¢"
      ],
      [
        "æĿ",
        "¡"
      ],
      [
        "æ»",
        "¡"
      ],
      [
        "å¹",
        "¿"
      ],
      [
        "æŀ",
        "Ĳ"
      ],
      [
        "æĸĩç«ł",
        "ä¸ŃæıĲåıĸ"
      ],
      [
        "æĸ¹",
        "æ³ķ"
      ],
      [
        "ä»¥ä¸ĭ",
        "æĸĩæľ¬"
      ],
      [
        "åŃĺ",
        "åľ¨"
      ],
      [
        "åķ",
        "Ĩ"
      ],
      [
        "èİ",
        "·"
      ],
      [
        "é¥",
        "®"
      ],
      [
        "å½ĵ",
        "çĦ¶"
      ],
      [
        "åı",
        "Ĥ"
      ],
      [
        "è¡¨",
        "è¾¾"
      ],
      [
        "çī",
        "ĩ"
      ],
      [
        "æŃ£",
        "åľ¨"
      ],
      [
        "çļĦ",
        "éĹ®é¢ĺ"
      ],
      [
        "æĺİ",
        "å¤©"
      ],
      [
        "æµ",
        "ĭ"
      ],
      [
        "åĪ¤",
        "æĸŃ"
      ],
      [
        "ä½Ĩ",
        "æĺ¯"
      ],
      [
        "éŁ³",
        "ä¹Ĳ"
      ],
      [
        "åį",
        "İ"
      ],
      [
        "çłĶ",
        "ç©¶"
      ],
      [
        "æ¨¡",
        "åŀĭ"
      ],
      [
        "åĪ",
        "Ĵ"
      ],
      [
        "æĸ¹",
        "å¼ı"
      ],
      [
        "åħ",
        "ĥ"
      ],
      [
        "è",
        "£"
      ],
      [
        "è®",
        "¸"
      ],
      [
        "é¦",
        "Ļ"
      ],
      [
        "æĪĳ",
        "åĸľæ¬¢"
      ],
      [
        "æıĲ",
        "é«ĺ"
      ],
      [
        "åĨ",
        "µ"
      ],
      [
        "åİ",
        "ħ"
      ],
      [
        "åĪĨ",
        "æŀĲ"
      ],
      [
        "çļĦ",
        "ä¿¡æģ¯"
      ],
      [
        "è¿Ļ",
        "äºĽ"
      ],
      [
        "åĳ",
        "½"
      ],
      [
        "æİ",
        "¢"
      ],
      [
        "åħ¨",
        "çĲĥ"
      ],
      [
        "çĶ±",
        "äºİ"
      ],
      [
        "å",
        "¦"
      ],
      [
        "å¤",
        "ľ"
      ],
      [
        "è¿ĺ",
        "æĺ¯"
      ],
      [
        "è®",
        "°"
      ],
      [
        "ç´",
        "¢"
      ],
      [
        "çļĦ",
        "äºº"
      ],
      [
        "ä¸Ģ",
        "ç¯ĩ"
      ],
      [
        "åĩı",
        "å°ĳ"
      ],
      [
        "æĸ¹",
        "éĿ¢"
      ],
      [
        "ç»",
        "Ĩ"
      ],
      [
        "æĪĸ",
        "èĢħ"
      ],
      [
        "ä¿Ŀ",
        "æĬ¤"
      ],
      [
        "çħ",
        "§"
      ],
      [
        "ä¼",
        "ĺ"
      ],
      [
        "åĲ",
        "Ħ"
      ],
      [
        "è´",
        "Ń"
      ],
      [
        "åŁ",
        "º"
      ],
      [
        "éļ",
        "ı"
      ],
      [
        "èĥ½",
        "å¤Ł"
      ],
      [
        "äº§",
        "åĵģ"
      ],
      [
        "çļĦ",
        "æĸĩæľ¬"
      ],
      [
        "æĺ¨",
        "å¤©"
      ],
      [
        "è±",
        "¡"
      ],
      [
        "ä¸",
        "ĩ"
      ],
      [
        "å¥",
        "³"
      ],
      [
        "å",
        "³"
      ],
      [
        "è¶",
        "ħ"
      ],
      [
        "ä¾",
        "¿"
      ],
      [
        "èĩ",
        "´"
      ],
      [
        "æ´»",
        "åĬ¨"
      ],
      [
        "æĸĩç«ł",
        "ä¸Ń"
      ],
      [
        "ä¸",
        "½"
      ],
      [
        "ä»ĸ",
        "çļĦ"
      ],
      [
        "æľ",
        "ĭ"
      ],
      [
        "å¤",
        "ĩ"
      ],
      [
        "åĽ",
        "¾"
      ],
      [
        "å£",
        "°"
      ],
      [
        "ç¥",
        "ŀ"
      ],
      [
        "é¤Ĳ",
        "åİħ"
      ],
      [
        "ä»¥",
        "åıĬ"
      ],
      [
        "åİĨ",
        "åı²"
      ],
      [
        "é£",
        "ŀ"
      ],
      [
        "åħ¬",
        "åĽŃ"
      ],
      [
        "å¢",
        "ŀ"
      ],
      [
        "æ",
        "Ĳ"
      ],
      [
        "ç¾İ",
        "åĽ½"
      ],
      [
        "æĪĳ",
        "åı¯ä»¥"
      ],
      [
        "ä½¿åħ¶",
        "æĽ´"
      ],
      [
        "æĢ»",
        "ç»ĵ"
      ],
      [
        "ä½",
        "İ"
      ],
      [
        "è®¡",
        "ç®Ĺ"
      ],
      [
        "ä¸º",
        "æĤ¨"
      ],
      [
        "æ²",
        "»"
      ],
      [
        "æĸ",
        "½"
      ],
      [
        "èĻ",
        "½"
      ],
      [
        "åĥ",
        "ı"
      ],
      [
        "è",
        "ķ"
      ],
      [
        "å¸®",
        "æĪĳ"
      ],
      [
        "æĢ",
        "İ"
      ],
      [
        "åĮħ",
        "åĲ«"
      ],
      [
        "åĵª",
        "äºĽ"
      ],
      [
        "æ",
        "ħ"
      ],
      [
        "è¯Ĩ",
        "åĪ«"
      ],
      [
        "ä¸Ģ",
        "é¦ĸ"
      ],
      [
        "ä»»",
        "åĬ¡"
      ],
      [
        "ç¬",
        "¦"
      ],
      [
        "æĿ",
        "İ"
      ],
      [
        "å",
        "ĭ"
      ],
      [
        "ï¼",
        "Ľ"
      ],
      [
        "æĽ",
        "¿"
      ],
      [
        "çĽ",
        "´"
      ],
      [
        "çĭ",
        "¬"
      ],
      [
        "æľĭ",
        "åıĭ"
      ],
      [
        "è¶",
        "Ĭ"
      ],
      [
        "è¾",
        "¹"
      ],
      [
        "ç§ĳ",
        "æĬĢ"
      ],
      [
        "éĺ",
        "Ł"
      ],
      [
        "æĦŁ",
        "åĪ°"
      ],
      [
        "åĩº",
        "å¤Ħ"
      ],
      [
        "èµ",
        "Ħ"
      ],
      [
        "æķ",
        "´"
      ],
      [
        "ä»",
        "ĭ"
      ],
      [
        "èį",
        "ī"
      ],
      [
        "æŃ£",
        "ç¡®"
      ],
      [
        "æŁ",
        "ĵ"
      ],
      [
        "å°ı",
        "æĺİ"
      ],
      [
        "å",
        "ł"
      ],
      [
        "çº",
        "ł"
      ],
      [
        "é»",
        "Ħ"
      ],
      [
        "æķ",
        "£"
      ],
      [
        "èĩ",
        "³"
      ],
      [
        "å¤",
        "±"
      ],
      [
        "æĶ",
        "¶"
      ],
      [
        "0",
        "0"
      ],
      [
        "ä¼",
        "¼"
      ],
      [
        "å®Į",
        "æĪĲ"
      ],
      [
        "æĪĲè¯Ń",
        "åĩºå¤Ħ"
      ],
      [
        "åĲį",
        "ç§°"
      ],
      [
        "ç",
        "¢"
      ],
      [
        "ï¼",
        "ī"
      ],
      [
        "åİ»",
        "äºĨ"
      ],
      [
        "æ®µ",
        "èĲ½"
      ],
      [
        "æľī",
        "è¶£"
      ],
      [
        "æĬ",
        "±"
      ],
      [
        "æŀ",
        "Ĺ"
      ],
      [
        "è¿Ĳ",
        "åĬ¨"
      ],
      [
        "æĹħ",
        "æ¸¸"
      ],
      [
        "è®",
        "²"
      ],
      [
        "åģ",
        "ĩ"
      ],
      [
        "æĽ´",
        "å¤ļ"
      ],
      [
        "æľī",
        "åħ³"
      ],
      [
        "æĺİ",
        "äºĨ"
      ],
      [
        "é",
        "²"
      ],
      [
        "å°",
        "Ŀ"
      ],
      [
        "æīĢ",
        "ä»¥"
      ],
      [
        "ä»İ",
        "æĸĩç«łä¸ŃæıĲåıĸ"
      ],
      [
        "å°",
        "Ķ"
      ],
      [
        "éĤ£",
        "ä¹Ī"
      ],
      [
        "åı",
        "¶"
      ],
      [
        "èĻ",
        "ĳ"
      ],
      [
        "æł",
        "ĳ"
      ],
      [
        "è°",
        "ĥ"
      ],
      [
        "çģ",
        "«"
      ],
      [
        "å¸",
        "ĥ"
      ],
      [
        "ç´",
        "ł"
      ],
      [
        "èģ",
        "Ĭ"
      ],
      [
        "ï¼",
        "Ī"
      ],
      [
        "äºº",
        "ä»¬"
      ],
      [
        "æŀ",
        "Ħ"
      ],
      [
        "çĲĨ",
        "è§£"
      ],
      [
        "è",
        "Ľ"
      ],
      [
        "å·",
        "´"
      ],
      [
        "åŃ",
        "£"
      ],
      [
        "è¿",
        "ľ"
      ],
      [
        "çİ",
        "ĩ"
      ],
      [
        "ä¿Ŀ",
        "æĮģ"
      ],
      [
        "è®",
        "¨"
      ],
      [
        "ç¦",
        "»"
      ],
      [
        "çĬ",
        "¶"
      ],
      [
        "åıĳ",
        "çİ°"
      ],
      [
        "ç",
        "ª"
      ],
      [
        "æ°",
        "ĳ"
      ],
      [
        "å°ı",
        "è¯´"
      ],
      [
        "æķħ",
        "äºĭ"
      ],
      [
        "å",
        "Ħ"
      ],
      [
        "ä¸ª",
        "äºº"
      ],
      [
        "å",
        "¨"
      ],
      [
        "éĩįåĨĻ",
        "ä»¥ä¸ĭåı¥åŃĲ"
      ],
      [
        "å¿",
        "ħ"
      ],
      [
        "è·",
        "ĳ"
      ],
      [
        "éĻ",
        "©"
      ],
      [
        "ä»",
        "¤"
      ],
      [
        "èĻ½",
        "çĦ¶"
      ],
      [
        "ç¬",
        "ĳ"
      ],
      [
        "æ",
        "¹"
      ],
      [
        "è®¡",
        "åĪĴ"
      ],
      [
        "ç§¯",
        "æŀģ"
      ],
      [
        "åº",
        "Ĺ"
      ],
      [
        "æĬ",
        "½"
      ],
      [
        "æĶ",
        "¯"
      ],
      [
        "èµ",
        "°"
      ],
      [
        "æĪ",
        "¿"
      ],
      [
        "åħ¶",
        "ä¸Ń"
      ],
      [
        "çļĦ",
        "é£İ"
      ],
      [
        "æĿ",
        "¾"
      ],
      [
        "ç»",
        "į"
      ],
      [
        "éĢ",
        "Ł"
      ],
      [
        "æĭ",
        "ī"
      ],
      [
        "ä½¿åħ¶æĽ´åĬł",
        "ç®Ģæ´ģ"
      ],
      [
        "æĤ¨",
        "çļĦ"
      ],
      [
        "ç§ĳ",
        "åŃ¦"
      ],
      [
        "æĪĳä»¬",
        "çļĦ"
      ],
      [
        "éħ",
        "Ĵ"
      ],
      [
        "ç²",
        "¾"
      ],
      [
        "çļĦ",
        "çĶµå½±"
      ],
      [
        "è¯",
        "¢"
      ],
      [
        "é¦",
        "Ĩ"
      ],
      [
        "äºº",
        "åĲį"
      ],
      [
        "çİ",
        "©"
      ],
      [
        "è§",
        "Ħ"
      ],
      [
        "é¢Ħ",
        "æĬ¥"
      ],
      [
        "å¤§",
        "çļĦ"
      ],
      [
        "å¤Ħ",
        "çĲĨ"
      ],
      [
        "åħ·",
        "æľī"
      ],
      [
        "æľį",
        "åĬ¡"
      ],
      [
        "åħ³",
        "ç³»"
      ],
      [
        "è®¸",
        "å¤ļ"
      ],
      [
        "åĪ",
        "Ļ"
      ],
      [
        "èī²",
        "çļĦ"
      ],
      [
        "ç®Ģ",
        "åįķ"
      ],
      [
        "æ¯Ķ",
        "èµĽ"
      ],
      [
        "åĴ",
        "ĸ"
      ],
      [
        "åıĺ",
        "åĮĸ"
      ],
      [
        "\"",
        "<|"
      ],
      [
        "ä¸¤ä¸ª",
        "åı¥åŃĲ"
      ],
      [
        "æ",
        "¥"
      ],
      [
        "åħ",
        "Ī"
      ],
      [
        "å³",
        "°"
      ],
      [
        "åĲ",
        "¸"
      ],
      [
        "è¯·",
        "æıĲä¾Ľ"
      ],
      [
        "ä¸Ģä¸ª",
        "åı¥åŃĲ"
      ],
      [
        "æī¾",
        "åĪ°"
      ],
      [
        "æĢİ",
        "ä¹Ī"
      ],
      [
        "è¯Ħ",
        "è®º"
      ],
      [
        "æļ",
        "ĸ"
      ],
      [
        "éĩ",
        "Ĭ"
      ],
      [
        "åķ",
        "¡"
      ],
      [
        "A",
        "I"
      ],
      [
        "åĴĸ",
        "åķ¡"
      ],
      [
        "æĽ",
        "²"
      ],
      [
        "æŃ",
        "ī"
      ],
      [
        "æ¢",
        "¦"
      ],
      [
        "ä¸ī",
        "ä¸ª"
      ],
      [
        "ä¹ĭ",
        "ä¸Ģ"
      ],
      [
        "å¸",
        "Į"
      ],
      [
        "ä¸į",
        "èĥ½"
      ],
      [
        "æĭ",
        "¼"
      ],
      [
        "é",
        "±"
      ],
      [
        "ä»ĭ",
        "ç»į"
      ],
      [
        "æĽ¿",
        "æį¢"
      ],
      [
        "ç",
        "ĳ"
      ],
      [
        "é±",
        "¼"
      ],
      [
        "ä»",
        "į"
      ],
      [
        "æ±",
        "¡"
      ],
      [
        "2",
        "0"
      ],
      [
        "çļĦ",
        "æĸĩç«ł"
      ],
      [
        "å¸",
        "Ī"
      ],
      [
        "éĻ",
        "į"
      ],
      [
        "é¸",
        "Ł"
      ],
      [
        "ç±»",
        "åŀĭ"
      ],
      [
        "æľĢ",
        "é«ĺ"
      ],
      [
        "é",
        "¾"
      ],
      [
        "èĤ",
        "²"
      ],
      [
        "å£",
        "«"
      ],
      [
        "æ¦Ĥ",
        "æĭ¬"
      ],
      [
        "æĬ±",
        "æŃī"
      ],
      [
        "åı",
        "Ī"
      ],
      [
        "éª",
        "Į"
      ],
      [
        "æĪĳ",
        "ä¼ļ"
      ],
      [
        "è¯Ĺ",
        "æŃĮ"
      ],
      [
        "çİ°",
        "ä»£"
      ],
      [
        "æĸĩ",
        "åŃĹ"
      ],
      [
        "å·",
        "ŀ"
      ],
      [
        "è§£",
        "åĨ³"
      ],
      [
        "éĢī",
        "é¡¹"
      ],
      [
        "ç»",
        "¿"
      ],
      [
        "æĥħ",
        "åĨµ"
      ],
      [
        "æĮ",
        "ī"
      ],
      [
        "åı",
        "°"
      ],
      [
        "åį",
        "³"
      ],
      [
        "è¾",
        "ĥ"
      ],
      [
        "åĦ",
        "¿"
      ],
      [
        "ä¸Ģ",
        "èµ·"
      ],
      [
        "ç»",
        "ĩ"
      ],
      [
        "è",
        "ĵ"
      ],
      [
        "äº",
        "ļ"
      ],
      [
        "ä¾ĭ",
        "å¦Ĥ"
      ],
      [
        "æİ",
        "ª"
      ],
      [
        "è®¤",
        "ä¸º"
      ],
      [
        "è¡",
        "£"
      ],
      [
        "çĻ",
        "¾"
      ],
      [
        "åĢ",
        "¼"
      ],
      [
        "å¤ª",
        "éĺ³"
      ],
      [
        "èº«",
        "ä½ĵ"
      ],
      [
        "èĩªå·±",
        "çļĦ"
      ],
      [
        "æ±¡",
        "æŁĵ"
      ],
      [
        "çº",
        "¿"
      ],
      [
        "åĨ",
        "Ľ"
      ],
      [
        "ä¸",
        "¾"
      ],
      [
        "ä½ľ",
        "ä¸º"
      ],
      [
        "å¾",
        "·"
      ],
      [
        "ç½",
        "®"
      ],
      [
        "èĳ",
        "Ĺ"
      ],
      [
        "æľī",
        "ä»Ģä¹Ī"
      ],
      [
        "å°Ĩ",
        "åħ¶"
      ],
      [
        "æ",
        "¤"
      ],
      [
        "è¾ĵ",
        "åĩº"
      ],
      [
        "æĬ½",
        "åıĸ"
      ],
      [
        "ç®Ģ",
        "çŁŃ"
      ],
      [
        "éĻ",
        "¤"
      ],
      [
        "åĲĮ",
        "ä¹īè¯į"
      ],
      [
        "ç«",
        "Ļ"
      ],
      [
        "åĨĻ",
        "ä¸Ģä¸ª"
      ],
      [
        "ä¸º",
        "ä»Ģä¹Ī"
      ],
      [
        "æĹħ",
        "è¡Į"
      ],
      [
        "ç",
        "Ĩ"
      ],
      [
        "æ²",
        "Ļ"
      ],
      [
        "æ±",
        "Ł"
      ],
      [
        "é£Ł",
        "çī©"
      ],
      [
        "éĥ¨",
        "çĶµå½±"
      ],
      [
        "åľ°",
        "çĲĥ"
      ],
      [
        "äº",
        "«"
      ],
      [
        "ç»",
        "ĥ"
      ],
      [
        "æĭ¼",
        "åĨĻ"
      ],
      [
        "æĸĩ",
        "åĮĸ"
      ],
      [
        "æ",
        "Ĵ"
      ],
      [
        "å½",
        "Ĵ"
      ],
      [
        "æīĢæľī",
        "çļĦ"
      ],
      [
        "è¿Ļä¸ª",
        "åı¥åŃĲ"
      ],
      [
        "ä¿®",
        "æĶ¹"
      ],
      [
        "å±",
        "ŀ"
      ],
      [
        "éĻ",
        "¢"
      ],
      [
        "æ",
        "ĩ"
      ],
      [
        "çĶ",
        "»"
      ],
      [
        "é",
        "Ĩ"
      ],
      [
        "åº",
        "ľ"
      ],
      [
        "æ²",
        "³"
      ],
      [
        "ä»İ",
        "è¿Ļç¯ĩæĸĩç«ł"
      ],
      [
        "å°Ŀ",
        "è¯ķ"
      ],
      [
        "æĤ¨",
        "åı¯ä»¥"
      ],
      [
        "é",
        "¹"
      ],
      [
        "å¼Ģ",
        "å§ĭ"
      ],
      [
        "éĢĤ",
        "åĲĪ"
      ],
      [
        "è¿Ļ",
        "æĺ¯ä¸Ģ"
      ],
      [
        "å°Ĩ",
        "ä»¥ä¸ĭåı¥åŃĲ"
      ],
      [
        "è´",
        "Ł"
      ],
      [
        "çĽ¸",
        "åĲĮ"
      ],
      [
        "åĸ",
        "Ħ"
      ],
      [
        "é¥®",
        "é£Ł"
      ],
      [
        "çļĦ",
        "åºĶçĶ¨"
      ],
      [
        "æľºåĻ¨",
        "åŃ¦ä¹ł"
      ],
      [
        "çĦ¶",
        "åĲİ"
      ],
      [
        "åį",
        "ĥ"
      ],
      [
        "æİª",
        "æĸ½"
      ],
      [
        "éĩ",
        "ĩ"
      ],
      [
        "ç»Ħ",
        "ç»ĩ"
      ],
      [
        "è§",
        "Ĵ"
      ],
      [
        "åį",
        "ĩ"
      ],
      [
        "çķ",
        "ħ"
      ],
      [
        "ä¹ĭ",
        "éĹ´"
      ],
      [
        "æĿ",
        "¯"
      ],
      [
        "çļĦ",
        "ä¸»è¦ģ"
      ],
      [
        "å¾Ī",
        "å¥½"
      ],
      [
        "æ°Ķ",
        "åĢĻ"
      ],
      [
        "å·",
        "§"
      ],
      [
        "åĬ",
        "¿"
      ],
      [
        "çŃī",
        "çŃī"
      ],
      [
        "ç±",
        "³"
      ],
      [
        "æĪ",
        "ı"
      ],
      [
        "çļĦ",
        "åľ°"
      ],
      [
        "éĿ",
        "Ĵ"
      ],
      [
        "åĲ",
        "§"
      ],
      [
        "è¿Ļ",
        "æ®µ"
      ],
      [
        "æĪĲ",
        "ä¸º"
      ],
      [
        "ç»ĵ",
        "æŀľ"
      ],
      [
        "éĺ",
        "ħ"
      ],
      [
        "çī",
        "Ľ"
      ],
      [
        "æµ",
        "İ"
      ],
      [
        "å¯",
        "»"
      ],
      [
        "æ¯",
        "į"
      ],
      [
        "å¯¼",
        "èĩ´"
      ],
      [
        "çŃ",
        "ĸ"
      ],
      [
        "ä»»",
        "ä½ķ"
      ],
      [
        "æĪĲ",
        "åĬŁ"
      ],
      [
        "æŁ",
        "Ĳ"
      ],
      [
        "è°",
        "ģ"
      ],
      [
        "å¾",
        "®"
      ],
      [
        "åŃ",
        "©"
      ],
      [
        "èĤ",
        "ī"
      ],
      [
        "è¿",
        "ŀ"
      ],
      [
        "è",
        "ħ"
      ],
      [
        "åĬ",
        "ª"
      ],
      [
        "ç¤¾",
        "ä¼ļ"
      ],
      [
        "æ¸ħ",
        "æĻ"
      ],
      [
        "å¸Į",
        "æľĽ"
      ],
      [
        "äºº",
        "çļĦ"
      ],
      [
        "èĲ",
        "¥"
      ],
      [
        "è§Ĥ",
        "çĤ¹"
      ],
      [
        "çļĦ",
        "åįķè¯į"
      ],
      [
        "é»",
        "ĳ"
      ],
      [
        "å¾",
        "Ģ"
      ],
      [
        "çŁ",
        "³"
      ],
      [
        "åħ",
        "ħ"
      ],
      [
        "èĦ",
        "ĳ"
      ],
      [
        "åĽł",
        "æŃ¤"
      ],
      [
        "åĬª",
        "åĬĽ"
      ],
      [
        "åī",
        "§"
      ],
      [
        "ç©",
        "¿"
      ],
      [
        "åİ",
        "ĭ"
      ],
      [
        "ç»",
        "Ī"
      ],
      [
        "ä½ł",
        "èĥ½"
      ],
      [
        "å½¢",
        "å®¹"
      ],
      [
        "è¿ĺ",
        "æľī"
      ],
      [
        "æīį",
        "èĥ½"
      ],
      [
        "æľ",
        "Ĺ"
      ],
      [
        "èµ·",
        "æĿ¥"
      ],
      [
        "ä¸ĸçķĮ",
        "ä¸Ĭ"
      ],
      [
        "èģ",
        "Į"
      ],
      [
        "çŁŃ",
        "è¯Ń"
      ],
      [
        "ä½ł",
        "åı¯ä»¥"
      ],
      [
        "æĺ¯ä¸Ģ",
        "ç§į"
      ],
      [
        "åĨ³",
        "å®ļ"
      ],
      [
        "éĶ",
        "Ģ"
      ],
      [
        "è°¢",
        "è°¢"
      ],
      [
        "éĿ",
        "Ļ"
      ],
      [
        "åĲį",
        "åŃĹ"
      ],
      [
        "åĨ",
        "°"
      ],
      [
        "æ¯ı",
        "å¤©"
      ],
      [
        "ç¨ĭ",
        "åºı"
      ],
      [
        "äº",
        "®"
      ],
      [
        "æ°´",
        "æŀľ"
      ],
      [
        "çķ",
        "Ļ"
      ],
      [
        "é¡",
        "º"
      ],
      [
        "æĪĳ",
        "ä¸į"
      ],
      [
        "éĽ",
        "Ĩ"
      ],
      [
        "æł",
        "¡"
      ],
      [
        "æ¬",
        "¾"
      ],
      [
        "å±",
        "ħ"
      ],
      [
        "åĨ",
        "·"
      ],
      [
        "é¥",
        "Ń"
      ],
      [
        "éĩ",
        "İ"
      ],
      [
        "è´",
        "¹"
      ],
      [
        "éĻ",
        "ħ"
      ],
      [
        "äºĨ",
        "è§£"
      ],
      [
        "é",
        "¼"
      ],
      [
        "åħ",
        "»"
      ],
      [
        "å®ĥ",
        "çļĦ"
      ],
      [
        "æĪĳ",
        "æĹłæ³ķ"
      ],
      [
        "ä¸Ģ",
        "ç§į"
      ],
      [
        "éĺħ",
        "è¯»"
      ],
      [
        "åı¤è¯Ĺ",
        "ç»ŃåĨĻ"
      ],
      [
        "å¿",
        "µ"
      ],
      [
        "åĲĮ",
        "æĹ¶"
      ],
      [
        "èĥ",
        "ľ"
      ],
      [
        "å¯",
        "Ĵ"
      ],
      [
        "åĸ",
        "Ŀ"
      ],
      [
        "èĽ",
        "ĭ"
      ],
      [
        "æµ",
        "ª"
      ],
      [
        "åĲ«",
        "ä¹ī"
      ],
      [
        "æ",
        "¿"
      ],
      [
        "åĵª",
        "ä¸ª"
      ],
      [
        "åĩĨ",
        "ç¡®"
      ],
[...]
